<PAD>	0
<UNK>	0
<BOS>	0
<EOS>	0
▁t	-0
he	-1
▁a	-2
in	-3
▁the	-4
er	-5
on	-6
▁,	-7
re	-8
▁s	-9
ed	-10
▁w	-11
▁o	-12
nd	-13
at	-14
▁.	-15
or	-16
en	-17
▁c	-18
it	-19
▁f	-20
is	-21
es	-22
ar	-23
▁b	-24
▁of	-25
an	-26
▁in	-27
al	-28
ing	-29
▁p	-30
as	-31
▁and	-32
▁to	-33
ic	-34
ro	-35
▁m	-36
▁d	-37
▁h	-38
ion	-39
le	-40
ou	-41
▁T	-42
▁=	-43
▁re	-44
▁S	-45
il	-46
▁A	-47
ent	-48
▁"	-49
▁1	-50
▁th	-51
st	-52
▁l	-53
el	-54
▁@	-55
▁C	-56
▁e	-57
om	-58
am	-59
▁n	-60
ac	-61
▁was	-62
ad	-63
un	-64
▁M	-65
▁on	-66
ec	-67
▁B	-68
▁The	-69
ly	-70
ur	-71
▁'	-72
▁g	-73
ol	-74
et	-75
id	-76
▁I	-77
-@	-78
▁@-@	-79
im	-80
▁for	-81
iv	-82
ir	-83
ig	-84
ter	-85
ot	-86
▁H	-87
ut	-88
▁as	-89
ow	-90
us	-91
ith	-92
ay	-93
▁2	-94
▁st	-95
▁P	-96
her	-97
ver	-98
ation	-99
▁with	-100
▁be	-101
▁that	-102
▁R	-103
ce	-104
▁D	-105
em	-106
▁wh	-107
▁W	-108
▁by	-109
ch	-110
▁)	-111
▁(	-112
▁F	-113
th	-114
▁al	-115
▁is	-116
▁L	-117
▁con	-118
ul	-119
▁at	-120
ers	-121
▁G	-122
ct	-123
▁N	-124
▁19	-125
and	-126
ain	-127
os	-128
▁an	-129
▁it	-130
▁he	-131
rom	-132
ag	-133
av	-134
um	-135
▁J	-136
00	-137
est	-138
▁r	-139
▁E	-140
▁his	-141
unk	-142
▁<	-143
ri	-144
od	-145
▁from	-146
▁O	-147
ist	-148
▁com	-149
▁pro	-150
▁v	-151
ap	-152
if	-153
op	-154
ld	-155
ill	-156
res	-157
up	-158
ere	-159
ies	-160
igh	-161
▁In	-162
ore	-163
ew	-164
▁de	-165
ard	-166
art	-167
ort	-168
▁were	-169
▁se	-170
ber	-171
ich	-172
all	-173
ate	-174
ak	-175
ab	-176
▁ex	-177
ong	-178
ant	-179
ud	-180
qu	-181
oc	-182
▁or	-183
▁ch	-184
gh	-185
ear	-186
ated	-187
ame	-188
▁pl	-189
ity	-190
▁sh	-191
ess	-192
ip	-193
ive	-194
▁U	-195
▁K	-196
ect	-197
▁had	-198
ack	-199
▁St	-200
our	-201
ast	-202
▁su	-203
se	-204
red	-205
▁k	-206
ge	-207
▁which	-208
ment	-209
und	-210
▁le	-211
▁are	-212
ial	-213
▁not	-214
ian	-215
▁y	-216
▁sp	-217
ov	-218
ost	-219
ell	-220
ight	-221
▁tr	-222
ord	-223
ther	-224
ary	-225
rit	-226
ia	-227
ine	-228
ust	-229
pt	-230
oun	-231
▁3	-232
ical	-233
ave	-234
▁Ch	-235
pp	-236
▁inc	-237
▁200	-238
▁un	-239
cc	-240
irst	-241
fter	-242
▁but	-243
ould	-244
ous	-245
te	-246
ions	-247
▁comp	-248
ish	-249
▁20	-250
so	-251
▁V	-252
▁whe	-253
ide	-254
ff	-255
ure	-256
▁;	-257
▁ro	-258
▁ar	-259
▁first	-260
▁cont	-261
ub	-262
▁her	-263
wo	-264
ra	-265
▁cl	-266
ign	-267
▁its	-268
og	-269
ie	-270
orm	-271
ass	-272
▁–	-273
ok	-274
▁their	-275
ue	-276
▁int	-277
▁:	-278
ater	-279
▁He	-280
▁res	-281
▁ab	-282
out	-283
ome	-284
ond	-285
▁also	-286
ork	-287
▁ad	-288
age	-289
▁us	-290
hed	-291
ire	-292
mer	-293
ry	-294
du	-295
per	-296
▁4	-297
own	-298
ime	-299
▁per	-300
▁one	-301
ru	-302
ans	-303
▁have	-304
▁Th	-305
ally	-306
▁18	-307
▁5	-308
low	-309
▁who	-310
.@	-311
▁@.@	-312
pl	-313
▁rec	-314
▁sc	-315
ance	-316
ile	-317
▁two	-318
ted	-319
ition	-320
ugh	-321
ence	-322
iz	-323
▁been	-324
▁has	-325
ts	-326
▁Al	-327
uring	-328
port	-329
▁bec	-330
,@	-331
▁@,@	-332
▁ag	-333
ree	-334
▁201	-335
ough	-336
▁part	-337
ice	-338
▁dis	-339
▁en	-340
ations	-341
▁app	-342
▁year	-343
lud	-344
▁this	-345
▁over	-346
ory	-347
▁ser	-348
▁j	-349
are	-350
ely	-351
land	-352
▁des	-353
ction	-354
ke	-355
ound	-356
▁play	-357
▁after	-358
ember	-359
▁off	-360
▁up	-361
ach	-362
ric	-363
▁It	-364
over	-365
▁other	-366
ark	-367
▁they	-368
ade	-369
ace	-370
▁out	-371
▁te	-372
▁man	-373
ib	-374
▁im	-375
▁includ	-376
ult	-377
act	-378
ress	-379
ail	-380
ced	-381
urn	-382
wn	-383
ang	-384
▁Y	-385
▁would	-386
ens	-387
▁pre	-388
▁time	-389
▁into	-390
ward	-391
▁Un	-392
we	-393
man	-394
▁we	-395
▁she	-396
▁On	-397
ind	-398
ep	-399
ite	-400
oin	-401
one	-402
▁ev	-403
▁6	-404
les	-405
▁him	-406
ates	-407
ount	-408
able	-409
ren	-410
ited	-411
ased	-412
▁att	-413
ase	-414
▁ne	-415
amp	-416
▁comm	-417
rough	-418
▁inter	-419
ied	-420
end	-421
▁more	-422
old	-423
ood	-424
ors	-425
▁all	-426
ons	-427
oy	-428
vel	-429
form	-430
ings	-431
▁7	-432
▁work	-433
ces	-434
ered	-435
▁An	-436
ild	-437
aw	-438
▁bet	-439
ilm	-440
▁new	-441
ose	-442
▁sec	-443
ents	-444
▁game	-445
▁fe	-446
▁when	-447
▁Ar	-448
vi	-449
way	-450
iss	-451
ake	-452
fer	-453
rib	-454
inal	-455
reat	-456
round	-457
ve	-458
▁8	-459
ick	-460
▁Se	-461
att	-462
▁cons	-463
▁rem	-464
aus	-465
▁dec	-466
orth	-467
▁Mar	-468
gan	-469
ason	-470
▁9	-471
ubl	-472
ft	-473
▁during	-474
ved	-475
oth	-476
▁most	-477
▁pr	-478
rop	-479
▁und	-480
ween	-481
▁199	-482
hip	-483
▁As	-484
▁them	-485
▁again	-486
▁only	-487
▁cent	-488
▁ear	-489
▁than	-490
ollow	-491
ix	-492
▁film	-493
▁can	-494
▁char	-495
▁song	-496
tern	-497
▁kn	-498
▁about	-499
fore	-500
ational	-501
▁produ	-502
ath	-503
▁between	-504
ug	-505
▁sup	-506
▁later	-507
▁00	-508
ob	-509
▁ret	-510
▁under	-511
▁col	-512
ton	-513
▁rele	-514
outh	-515
▁num	-516
ict	-517
orld	-518
▁three	-519
ey	-520
ook	-521
▁En	-522
▁through	-523
ank	-524
▁me	-525
▁New	-526
▁act	-527
orn	-528
▁rel	-529
▁acc	-530
▁qu	-531
▁so	-532
hn	-533
ames	-534
ron	-535
ters	-536
meric	-537
▁end	-538
lect	-539
▁Americ	-540
als	-541
▁Le	-542
▁while	-543
▁fl	-544
▁pos	-545
▁ver	-546
▁ass	-547
aid	-548
ock	-549
▁bu	-550
▁Com	-551
▁where	-552
ating	-553
ular	-554
▁pe	-555
ever	-556
ived	-557
ener	-558
▁sub	-559
son	-560
▁day	-561
▁record	-562
ool	-563
▁second	-564
▁000	-565
▁gro	-566
▁reg	-567
bum	-568
▁such	-569
ision	-570
▁made	-571
hes	-572
ck	-573
ral	-574
▁am	-575
▁some	-576
▁ep	-577
▁writ	-578
▁season	-579
ished	-580
▁follow	-581
▁Re	-582
▁form	-583
▁there	-584
▁def	-585
ics	-586
▁four	-587
▁before	-588
▁spec	-589
ning	-590
▁mus	-591
▁mov	-592
▁years	-593
ike	-594
ual	-595
ained	-596
ode	-597
▁gr	-598
ros	-599
▁ind	-600
io	-601
▁lar	-602
ph	-603
▁sy	-604
▁/	-605
▁This	-606
▁10	-607
▁ac	-608
▁At	-609
iel	-610
▁album	-611
▁Jo	-612
ident	-613
▁call	-614
hen	-615
▁high	-616
▁Sp	-617
ily	-618
ific	-619
▁team	-620
▁used	-621
▁ent	-622
▁sur	-623
▁publ	-624
owever	-625
▁epis	-626
velop	-627
▁being	-628
ury	-629
▁exp	-630
ife	-631
led	-632
anc	-633
▁Sh	-634
▁17	-635
▁charac	-636
▁do	-637
▁set	-638
ten	-639
▁number	-640
▁then	-641
▁loc	-642
other	-643
▁0	-644
▁pres	-645
▁no	-646
ious	-647
▁After	-648
ject	-649
▁against	-650
▁inv	-651
ris	-652
▁Brit	-653
▁sever	-654
▁rece	-655
ince	-656
▁co	-657
ane	-658
ines	-659
aj	-660
▁bl	-661
▁United	-662
ale	-663
ather	-664
▁found	-665
▁br	-666
▁add	-667
▁show	-668
▁became	-669
▁including	-670
ause	-671
▁both	-672
▁well	-673
erm	-674
ek	-675
▁sing	-676
▁—	-677
▁12	-678
▁series	-679
▁mon	-680
▁198	-681
ower	-682
ars	-683
air	-684
iver	-685
▁rep	-686
▁194	-687
its	-688
▁perform	-689
any	-690
ired	-691
▁ship	-692
pen	-693
ier	-694
ober	-695
ivers	-696
ities	-697
ures	-698
▁back	-699
▁develop	-700
▁lead	-701
▁main	-702
ement	-703
▁Eng	-704
▁cap	-705
▁She	-706
▁pol	-707
▁cre	-708
▁15	-709
ird	-710
ert	-711
▁Wh	-712
ram	-713
▁Con	-714
elf	-715
▁min	-716
▁Sc	-717
ised	-718
olog	-719
▁imp	-720
ley	-721
overn	-722
▁met	-723
▁long	-724
tend	-725
uch	-726
▁did	-727
ann	-728
ven	-729
▁many	-730
ll	-731
▁episode	-732
ative	-733
ield	-734
▁stud	-735
ting	-736
ared	-737
▁dire	-738
▁orig	-739
az	-740
▁go	-741
ful	-742
▁16	-743
chool	-744
ouse	-745
▁mill	-746
▁em	-747
▁war	-748
iet	-749
▁contin	-750
▁John	-751
ik	-752
ash	-753
▁several	-754
▁American	-755
▁Br	-756
▁air	-757
▁dep	-758
ute	-759
though	-760
▁pop	-761
▁dif	-762
▁could	-763
▁bro	-764
▁known	-765
▁car	-766
▁Ind	-767
▁mat	-768
▁ob	-769
▁sm	-770
ross	-771
▁desc	-772
▁11	-773
der	-774
ise	-775
ern	-776
til	-777
▁inst	-778
ually	-779
ins	-780
▁196	-781
enn	-782
emb	-783
▁design	-784
▁said	-785
▁197	-786
▁Cl	-787
▁comple	-788
iam	-789
ued	-790
▁War	-791
erson	-792
view	-793
ange	-794
▁any	-795
▁began	-796
ople	-797
ah	-798
▁return	-799
ty	-800
▁conc	-801
▁trans	-802
▁Fr	-803
▁prov	-804
aking	-805
▁early	-806
▁inf	-807
▁dist	-808
▁called	-809
my	-810
ized	-811
▁near	-812
▁est	-813
▁sign	-814
▁feat	-815
▁own	-816
▁art	-817
ccess	-818
▁released	-819
▁pass	-820
une	-821
▁until	-822
rap	-823
hy	-824
▁Aust	-825
▁Z	-826
▁bel	-827
▁eff	-828
▁run	-829
▁Col	-830
▁resp	-831
▁De	-832
ution	-833
ments	-834
▁music	-835
▁down	-836
ided	-837
▁may	-838
oot	-839
ism	-840
▁disc	-841
▁group	-842
imes	-843
▁May	-844
ially	-845
▁US	-846
stem	-847
ists	-848
▁fin	-849
▁gener	-850
xt	-851
▁crit	-852
osed	-853
▁British	-854
▁Bl	-855
▁direct	-856
▁offic	-857
ax	-858
▁mil	-859
ured	-860
▁these	-861
▁along	-862
▁mod	-863
▁ins	-864
▁million	-865
▁fam	-866
ajor	-867
▁$	-868
cept	-869
vent	-870
▁195	-871
▁open	-872
▁13	-873
▁land	-874
▁States	-875
▁hist	-876
gest	-877
▁use	-878
els	-879
▁oper	-880
▁count	-881
ium	-882
▁describ	-883
▁str	-884
▁poin	-885
▁Aug	-886
ains	-887
ull	-888
▁sim	-889
amed	-890
▁govern	-891
▁Ad	-892
ible	-893
eb	-894
▁World	-895
▁same	-896
yp	-897
▁August	-898
▁people	-899
▁character	-900
uc	-901
▁Be	-902
erv	-903
wards	-904
▁For	-905
▁Sept	-906
▁success	-907
▁September	-908
▁though	-909
▁gu	-910
aining	-911
▁14	-912
▁vi	-913
ger	-914
▁because	-915
▁Ger	-916
▁Is	-917
▁around	-918
▁start	-919
▁occ	-920
▁attack	-921
▁km	-922
▁like	-923
▁All	-924
▁Ap	-925
aced	-926
ink	-927
ner	-928
▁north	-929
▁serv	-930
get	-931
▁193	-932
▁const	-933
ove	-934
▁Car	-935
▁ed	-936
▁Ju	-937
▁Pl	-938
ruct	-939
ped	-940
▁class	-941
▁century	-942
ants	-943
ues	-944
attle	-945
aving	-946
▁win	-947
▁system	-948
▁six	-949
▁following	-950
▁received	-951
▁Pro	-952
▁consid	-953
▁dr	-954
▁However	-955
▁support	-956
▁ele	-957
ility	-958
gin	-959
▁final	-960
▁took	-961
▁Oct	-962
▁Nov	-963
▁ever	-964
▁var	-965
▁ext	-966
▁each	-967
▁appear	-968
▁ann	-969
▁build	-970
ives	-971
▁small	-972
ically	-973
▁five	-974
▁Me	-975
▁life	-976
▁Tr	-977
▁prom	-978
▁partic	-979
anu	-980
▁city	-981
▁]	-982
▁[	-983
oss	-984
▁October	-985
▁They	-986
▁North	-987
▁area	-988
▁will	-989
▁aut	-990
ina	-991
▁191	-992
▁Austral	-993
▁head	-994
▁%	-995
▁Dec	-996
▁Q	-997
▁state	-998
▁German	-999
▁June	-1000
ling	-1001
▁report	-1002
iving	-1003
rol	-1004
urch	-1005
ately	-1006
▁bo	-1007
ording	-1008
ene	-1009
ets	-1010
▁world	-1011
▁public	-1012
▁week	-1013
ission	-1014
▁since	-1015
▁school	-1016
▁major	-1017
idge	-1018
esp	-1019
ient	-1020
tle	-1021
uss	-1022
▁med	-1023
ril	-1024
hest	-1025
inc	-1026
▁King	-1027
▁July	-1028
▁Can	-1029
ection	-1030
ret	-1031
▁conf	-1032
por	-1033
▁York	-1034
ried	-1035
ional	-1036
▁mar	-1037
ilt	-1038
ales	-1039
▁single	-1040
ural	-1041
▁Will	-1042
ored	-1043
▁November	-1044
ians	-1045
▁po	-1046
med	-1047
▁By	-1048
lish	-1049
eng	-1050
..	-1051
▁last	-1052
▁ref	-1053
▁Comm	-1054
▁Har	-1055
▁April	-1056
▁vers	-1057
▁det	-1058
ected	-1059
▁book	-1060
ively	-1061
▁Ed	-1062
▁just	-1063
▁rest	-1064
▁turn	-1065
▁large	-1066
▁south	-1067
▁March	-1068
▁hel	-1069
omet	-1070
rist	-1071
▁...	-1072
raft	-1073
vious	-1074
▁allow	-1075
▁differ	-1076
▁30	-1077
▁care	-1078
▁25	-1079
ined	-1080
▁arr	-1081
▁line	-1082
▁month	-1083
▁left	-1084
▁During	-1085
▁sl	-1086
▁Mc	-1087
▁adv	-1088
ified	-1089
▁incre	-1090
▁much	-1091
aim	-1092
ats	-1093
▁what	-1094
ball	-1095
▁due	-1096
▁Ph	-1097
▁expl	-1098
▁if	-1099
ble	-1100
empt	-1101
▁another	-1102
ague	-1103
▁Janu	-1104
▁January	-1105
▁appro	-1106
▁old	-1107
▁third	-1108
▁December	-1109
aged	-1110
▁included	-1111
▁based	-1112
▁tit	-1113
▁short	-1114
▁Gr	-1115
▁Pr	-1116
▁elect	-1117
▁played	-1118
▁South	-1119
▁person	-1120
▁Ge	-1121
▁kill	-1122
cl	-1123
rote	-1124
avy	-1125
▁name	-1126
ently	-1127
apan	-1128
▁event	-1129
▁government	-1130
▁When	-1131
▁Or	-1132
▁band	-1133
▁camp	-1134
▁wrote	-1135
▁death	-1136
▁Japan	-1137
▁place	-1138
ience	-1139
alf	-1140
▁bre	-1141
▁described	-1142
▁port	-1143
▁lit	-1144
by	-1145
▁Gu	-1146
row	-1147
▁games	-1148
▁ph	-1149
ne	-1150
oman	-1151
▁track	-1152
ple	-1153
ograp	-1154
▁eng	-1155
▁192	-1156
ony	-1157
▁home	-1158
▁named	-1159
▁prog	-1160
ideo	-1161
ages	-1162
▁vis	-1163
▁prot	-1164
rench	-1165
▁won	-1166
▁requ	-1167
oad	-1168
▁review	-1169
▁way	-1170
▁power	-1171
▁story	-1172
mp	-1173
▁previous	-1174
▁now	-1175
▁child	-1176
▁family	-1177
▁cour	-1178
▁dem	-1179
▁II	-1180
▁even	-1181
ody	-1182
iod	-1183
ital	-1184
▁Eu	-1185
▁term	-1186
▁poss	-1187
ilar	-1188
▁led	-1189
▁dam	-1190
iversity	-1191
ister	-1192
▁100	-1193
ior	-1194
▁top	-1195
▁Bro	-1196
▁par	-1197
ival	-1198
▁species	-1199
▁Te	-1200
▁attempt	-1201
itions	-1202
▁those	-1203
▁right	-1204
ached	-1205
▁gun	-1206
ged	-1207
▁French	-1208
iven	-1209
omin	-1210
urther	-1211
ont	-1212
▁make	-1213
▁best	-1214
▁men	-1215
▁very	-1216
▁iss	-1217
▁belie	-1218
▁hand	-1219
▁There	-1220
oci	-1221
▁Christ	-1222
enc	-1223
▁organ	-1224
embers	-1225
▁leg	-1226
▁command	-1227
▁mark	-1228
▁opp	-1229
ature	-1230
▁National	-1231
▁sold	-1232
▁repl	-1233
▁still	-1234
▁view	-1235
▁built	-1236
af	-1237
▁original	-1238
▁list	-1239
alk	-1240
▁period	-1241
riend	-1242
ott	-1243
ences	-1244
▁effect	-1245
▁addition	-1246
ivision	-1247
▁Her	-1248
ps	-1249
▁His	-1250
▁next	-1251
▁water	-1252
ery	-1253
self	-1254
▁late	-1255
▁Mus	-1256
▁storm	-1257
▁within	-1258
rew	-1259
▁Feb	-1260
aken	-1261
ness	-1262
▁exper	-1263
ruary	-1264
▁February	-1265
aff	-1266
▁although	-1267
▁Fl	-1268
tended	-1269
▁Par	-1270
▁dest	-1271
reen	-1272
▁And	-1273
ched	-1274
ham	-1275
▁We	-1276
ances	-1277
▁West	-1278
▁great	-1279
▁former	-1280
▁William	-1281
▁21	-1282
▁join	-1283
ards	-1284
▁real	-1285
hor	-1286
▁capt	-1287
lu	-1288
augh	-1289
▁held	-1290
ring	-1291
▁spe	-1292
line	-1293
▁Europ	-1294
bo	-1295
▁init	-1296
▁cur	-1297
▁town	-1298
uted	-1299
▁present	-1300
▁tri	-1301
ney	-1302
ption	-1303
▁2010	-1304
▁release	-1305
ides	-1306
▁video	-1307
ropical	-1308
itary	-1309
▁cover	-1310
▁deb	-1311
▁members	-1312
▁equ	-1313
▁days	-1314
▁stand	-1315
ulation	-1316
▁Min	-1317
▁Bar	-1318
▁caus	-1319
sh	-1320
▁prop	-1321
▁estab	-1322
▁2008	-1323
▁control	-1324
▁Europe	-1325
▁&	-1326
▁came	-1327
lev	-1328
▁few	-1329
▁wind	-1330
aster	-1331
▁No	-1332
ler	-1333
au	-1334
▁sk	-1335
▁however	-1336
▁result	-1337
▁Man	-1338
▁Mich	-1339
▁role	-1340
br	-1341
esc	-1342
▁cr	-1343
ense	-1344
ves	-1345
▁mid	-1346
▁polit	-1347
atic	-1348
▁among	-1349
▁24	-1350
▁you	-1351
▁England	-1352
ruction	-1353
ech	-1354
▁often	-1355
▁hum	-1356
ays	-1357
estern	-1358
urs	-1359
▁continued	-1360
▁similar	-1361
▁del	-1362
▁2011	-1363
▁side	-1364
▁typ	-1365
oon	-1366
▁my	-1367
ology	-1368
▁Char	-1369
▁2009	-1370
▁level	-1371
▁Geor	-1372
▁av	-1373
akes	-1374
▁local	-1375
▁post	-1376
roy	-1377
▁tw	-1378
ead	-1379
tal	-1380
▁Count	-1381
▁2007	-1382
▁claim	-1383
▁Rec	-1384
▁sug	-1385
▁sent	-1386
hel	-1387
▁Ear	-1388
▁considered	-1389
▁different	-1390
▁X	-1391
▁version	-1392
▁Air	-1393
▁beh	-1394
▁22	-1395
ms	-1396
▁River	-1397
gy	-1398
elt	-1399
side	-1400
▁fre	-1401
let	-1402
▁player	-1403
read	-1404
omen	-1405
uck	-1406
▁English	-1407
▁match	-1408
▁Am	-1409
yl	-1410
par	-1411
▁take	-1412
▁moved	-1413
ract	-1414
▁Canad	-1415
▁2012	-1416
▁every	-1417
ese	-1418
▁career	-1419
rodu	-1420
▁further	-1421
▁without	-1422
▁One	-1423
▁history	-1424
▁half	-1425
ize	-1426
▁Park	-1427
ops	-1428
reet	-1429
▁23	-1430
▁Acc	-1431
▁Lond	-1432
▁mag	-1433
▁Ang	-1434
▁ant	-1435
ator	-1436
▁London	-1437
▁west	-1438
▁Co	-1439
▁Although	-1440
▁commun	-1441
▁production	-1442
▁cast	-1443
que	-1444
ering	-1445
ampions	-1446
▁having	-1447
▁become	-1448
▁written	-1449
yle	-1450
omb	-1451
eter	-1452
app	-1453
ung	-1454
▁appe	-1455
ches	-1456
▁City	-1457
▁road	-1458
▁strong	-1459
resent	-1460
▁influ	-1461
▁sound	-1462
▁El	-1463
atter	-1464
▁east	-1465
▁Cent	-1466
ai	-1467
▁suggest	-1468
▁el	-1469
▁Cal	-1470
ices	-1471
▁fore	-1472
ots	-1473
▁position	-1474
▁plan	-1475
▁law	-1476
▁house	-1477
▁prof	-1478
▁190	-1479
ape	-1480
▁trad	-1481
ying	-1482
▁gave	-1483
▁bas	-1484
▁With	-1485
▁order	-1486
▁cor	-1487
▁less	-1488
▁refer	-1489
▁fire	-1490
▁aff	-1491
▁foot	-1492
▁invol	-1493
▁Dav	-1494
▁import	-1495
▁point	-1496
ford	-1497
irc	-1498
vers	-1499
me	-1500
▁Gener	-1501
▁published	-1502
▁University	-1503
ailed	-1504
▁hig	-1505
iety	-1506
▁Jack	-1507
rent	-1508
▁low	-1509
▁pat	-1510
ories	-1511
aul	-1512
ones	-1513
sequ	-1514
▁rad	-1515
▁never	-1516
ours	-1517
▁origin	-1518
▁far	-1519
urric	-1520
▁total	-1521
na	-1522
▁produced	-1523
cess	-1524
▁soc	-1525
▁High	-1526
rest	-1527
▁ke	-1528
▁defe	-1529
▁common	-1530
utes	-1531
▁company	-1532
▁compet	-1533
▁fact	-1534
ront	-1535
▁chang	-1536
ges	-1537
▁returned	-1538
▁Bo	-1539
▁stat	-1540
▁Ab	-1541
outher	-1542
▁friend	-1543
▁While	-1544
▁lost	-1545
▁comb	-1546
▁club	-1547
▁Sm	-1548
ison	-1549
▁Ex	-1550
con	-1551
▁given	-1552
▁country	-1553
▁include	-1554
aun	-1555
oll	-1556
aly	-1557
▁tem	-1558
▁particular	-1559
▁want	-1560
▁recorded	-1561
echn	-1562
▁announ	-1563
iment	-1564
osp	-1565
outhern	-1566
▁find	-1567
▁nort	-1568
▁youn	-1569
▁stated	-1570
▁good	-1571
sp	-1572
▁press	-1573
ention	-1574
ably	-1575
▁songs	-1576
ille	-1577
▁ord	-1578
▁2006	-1579
ush	-1580
▁using	-1581
▁went	-1582
▁eight	-1583
▁program	-1584
levision	-1585
▁vict	-1586
▁military	-1587
▁reported	-1588
craft	-1589
ief	-1590
▁50	-1591
▁project	-1592
▁According	-1593
▁adm	-1594
▁er	-1595
▁ships	-1596
▁27	-1597
▁2013	-1598
▁lim	-1599
▁need	-1600
▁fun	-1601
ington	-1602
▁189	-1603
▁Ne	-1604
aying	-1605
▁star	-1606
▁building	-1607
lear	-1608
▁James	-1609
▁should	-1610
raw	-1611
▁Ass	-1612
▁ten	-1613
atch	-1614
olution	-1615
▁tro	-1616
▁development	-1617
▁author	-1618
▁Comp	-1619
▁popular	-1620
▁sit	-1621
▁These	-1622
▁destroy	-1623
▁gen	-1624
gr	-1625
▁forces	-1626
▁making	-1627
▁read	-1628
▁ter	-1629
used	-1630
▁light	-1631
tain	-1632
dom	-1633
▁characters	-1634
▁ide	-1635
aign	-1636
▁how	-1637
ald	-1638
urricane	-1639
▁ft	-1640
iness	-1641
▁General	-1642
▁battle	-1643
itive	-1644
ument	-1645
▁times	-1646
aren	-1647
▁father	-1648
ampionship	-1649
▁28	-1650
▁field	-1651
▁cross	-1652
ords	-1653
▁fr	-1654
▁represent	-1655
▁service	-1656
▁26	-1657
▁critic	-1658
astern	-1659
▁Ste	-1660
▁interest	-1661
hern	-1662
▁himself	-1663
▁Sim	-1664
▁Af	-1665
▁bus	-1666
oyal	-1667
ned	-1668
▁across	-1669
alth	-1670
ither	-1671
▁somet	-1672
ries	-1673
▁title	-1674
▁Australia	-1675
▁40	-1676
▁sw	-1677
▁Sec	-1678
▁performance	-1679
▁introdu	-1680
▁ground	-1681
▁developed	-1682
▁State	-1683
▁remained	-1684
▁months	-1685
▁East	-1686
▁County	-1687
yn	-1688
▁colle	-1689
ploy	-1690
bs	-1691
rie	-1692
▁gl	-1693
ensive	-1694
▁chart	-1695
▁squ	-1696
eder	-1697
▁fac	-1698
▁Sw	-1699
ression	-1700
▁died	-1701
▁sum	-1702
▁ste	-1703
▁batt	-1704
▁Hen	-1705
▁force	-1706
▁reached	-1707
isc	-1708
work	-1709
ency	-1710
▁Cor	-1711
ublic	-1712
▁rank	-1713
ases	-1714
▁suff	-1715
▁obs	-1716
▁island	-1717
▁signific	-1718
ration	-1719
fic	-1720
▁Dr	-1721
most	-1722
▁pra	-1723
▁areas	-1724
▁get	-1725
▁Army	-1726
▁relations	-1727
▁official	-1728
▁aircraft	-1729
▁histor	-1730
▁felt	-1731
▁produc	-1732
▁cop	-1733
▁Rich	-1734
▁national	-1735
▁bar	-1736
▁players	-1737
isted	-1738
ream	-1739
▁son	-1740
hem	-1741
▁Rober	-1742
ox	-1743
aur	-1744
▁away	-1745
▁intern	-1746
omp	-1747
ael	-1748
▁anim	-1749
rick	-1750
▁created	-1751
itted	-1752
▁America	-1753
ask	-1754
ole	-1755
▁various	-1756
▁red	-1757
▁children	-1758
▁too	-1759
▁Pres	-1760
▁fav	-1761
▁age	-1762
▁conv	-1763
▁seven	-1764
hic	-1765
ization	-1766
▁Japanese	-1767
▁night	-1768
idence	-1769
elling	-1770
ae	-1771
▁’	-1772
▁Pol	-1773
acy	-1774
▁served	-1775
reg	-1776
▁trav	-1777
▁noted	-1778
▁2005	-1779
▁Mon	-1780
▁Per	-1781
▁prim	-1782
ising	-1783
▁sol	-1784
▁television	-1785
▁Road	-1786
▁2014	-1787
▁vol	-1788
ways	-1789
▁aver	-1790
▁non	-1791
▁killed	-1792
▁tour	-1793
imately	-1794
▁campaign	-1795
▁Phil	-1796
▁George	-1797
▁enc	-1798
▁successful	-1799
▁val	-1800
abor	-1801
▁earl	-1802
▁29	-1803
▁ask	-1804
cast	-1805
▁begin	-1806
▁Sy	-1807
field	-1808
▁seen	-1809
ination	-1810
▁agre	-1811
▁decl	-1812
▁cond	-1813
▁mm	-1814
ressed	-1815
▁promot	-1816
▁discover	-1817
ivil	-1818
▁Med	-1819
odes	-1820
▁League	-1821
▁rock	-1822
▁thought	-1823
▁throughout	-1824
▁taken	-1825
▁hit	-1826
▁ident	-1827
▁political	-1828
rison	-1829
▁cost	-1830
▁station	-1831
irl	-1832
duct	-1833
▁techn	-1834
▁process	-1835
▁Gl	-1836
▁followed	-1837
▁let	-1838
▁style	-1839
▁coll	-1840
▁tropical	-1841
eth	-1842
▁performed	-1843
▁put	-1844
▁circ	-1845
ivid	-1846
▁award	-1847
▁rev	-1848
▁see	-1849
▁fem	-1850
▁!	-1851
▁announced	-1852
▁nov	-1853
▁black	-1854
ertain	-1855
oice	-1856
play	-1857
▁cult	-1858
▁cy	-1859
iting	-1860
▁Island	-1861
▁writing	-1862
lished	-1863
▁becom	-1864
▁significant	-1865
▁Rep	-1866
▁Sup	-1867
▁coun	-1868
▁Reg	-1869
▁help	-1870
▁special	-1871
▁To	-1872
▁does	-1873
▁full	-1874
▁Street	-1875
iber	-1876
▁You	-1877
▁little	-1878
▁fle	-1879
hys	-1880
▁arm	-1881
▁Division	-1882
iers	-1883
enced	-1884
ality	-1885
▁base	-1886
▁able	-1887
▁modern	-1888
▁look	-1889
ett	-1890
▁test	-1891
▁impro	-1892
aval	-1893
▁Afric	-1894
▁route	-1895
ample	-1896
▁Bill	-1897
hing	-1898
▁miles	-1899
▁wid	-1900
▁range	-1901
ogn	-1902
▁features	-1903
▁entire	-1904
▁round	-1905
▁established	-1906
▁general	-1907
ground	-1908
▁started	-1909
▁Russ	-1910
▁Mor	-1911
▁Ser	-1912
ators	-1913
ought	-1914
▁aud	-1915
▁meet	-1916
ana	-1917
iec	-1918
ope	-1919
alt	-1920
▁div	-1921
rict	-1922
▁broad	-1923
▁arg	-1924
ster	-1925
▁arch	-1926
▁appeared	-1927
iron	-1928
▁member	-1929
alls	-1930
ecut	-1931
▁grow	-1932
▁Em	-1933
▁site	-1934
▁activ	-1935
▁Black	-1936
▁caused	-1937
umb	-1938
▁conn	-1939
▁coast	-1940
orts	-1941
less	-1942
▁David	-1943
▁women	-1944
▁Intern	-1945
▁others	-1946
lected	-1947
urb	-1948
ript	-1949
conom	-1950
itar	-1951
▁hold	-1952
▁esc	-1953
ama	-1954
▁Act	-1955
▁fight	-1956
aves	-1957
▁decided	-1958
aint	-1959
▁struct	-1960
▁ve	-1961
▁important	-1962
▁feet	-1963
▁manag	-1964
gether	-1965
▁House	-1966
▁together	-1967
▁31	-1968
▁2004	-1969
▁eventually	-1970
▁stri	-1971
▁body	-1972
here	-1973
▁186	-1974
▁Henry	-1975
▁crew	-1976
day	-1977
▁surv	-1978
▁San	-1979
ament	-1980
▁School	-1981
▁Pe	-1982
▁188	-1983
▁Mad	-1984
▁points	-1985
▁Sch	-1986
emy	-1987
idd	-1988
ects	-1989
▁insp	-1990
▁Royal	-1991
men	-1992
▁completed	-1993
▁occur	-1994
▁mix	-1995
▁formed	-1996
▁redu	-1997
asing	-1998
▁pri	-1999
omm	-2000
epend	-2001
▁France	-2002
▁located	-2003
▁instead	-2004
▁population	-2005
▁Part	-2006
rought	-2007
cent	-2008
▁Hist	-2009
wood	-2010
▁lik	-2011
ceed	-2012
▁born	-2013
▁Other	-2014
ee	-2015
▁opened	-2016
▁tre	-2017
▁action	-2018
igned	-2019
aces	-2020
ades	-2021
▁cut	-2022
▁loss	-2023
▁know	-2024
▁host	-2025
▁Michael	-2026
▁rather	-2027
to	-2028
▁saw	-2029
▁once	-2030
▁added	-2031
▁Indian	-2032
▁white	-2033
urg	-2034
▁invest	-2035
▁comment	-2036
▁Squ	-2037
▁peak	-2038
▁Vir	-2039
▁front	-2040
ements	-2041
cil	-2042
▁associ	-2043
off	-2044
itch	-2045
▁2015	-2046
head	-2047
▁ra	-2048
▁live	-2049
▁originally	-2050
▁voc	-2051
▁bomb	-2052
▁playing	-2053
aps	-2054
ficult	-2055
▁heavy	-2056
▁fif	-2057
▁mater	-2058
▁behind	-2059
▁lack	-2060
ming	-2061
▁mot	-2062
▁ren	-2063
▁individ	-2064
▁relationship	-2065
▁Ir	-2066
ray	-2067
▁proble	-2068
▁difficult	-2069
▁Game	-2070
angu	-2071
▁upon	-2072
▁separ	-2073
lic	-2074
▁subsequ	-2075
▁stage	-2076
▁works	-2077
▁guns	-2078
▁construction	-2079
▁187	-2080
ula	-2081
▁Nor	-2082
istic	-2083
▁Some	-2084
▁Star	-2085
reek	-2086
ological	-2087
▁almost	-2088
ells	-2089
▁Australian	-2090
▁Battle	-2091
▁pred	-2092
▁Roman	-2093
▁Qu	-2094
▁reach	-2095
▁least	-2096
▁2000	-2097
▁mult	-2098
▁pract	-2099
▁clos	-2100
▁mer	-2101
xic	-2102
▁miss	-2103
▁worked	-2104
▁human	-2105
oid	-2106
medi	-2107
▁weeks	-2108
▁hon	-2109
▁indust	-2110
▁Angel	-2111
▁Robert	-2112
▁king	-2113
▁provided	-2114
▁Wash	-2115
▁engine	-2116
▁close	-2117
oring	-2118
▁recogn	-2119
▁Ag	-2120
▁respect	-2121
▁case	-2122
▁Desp	-2123
oney	-2124
▁young	-2125
▁race	-2126
▁vill	-2127
▁creat	-2128
go	-2129
antic	-2130
▁average	-2131
ata	-2132
▁tradition	-2133
▁Music	-2134
▁region	-2135
▁laun	-2136
▁inform	-2137
▁brother	-2138
▁accept	-2139
▁example	-2140
▁500	-2141
▁leading	-2142
▁damage	-2143
▁profess	-2144
▁mass	-2145
int	-2146
bert	-2147
▁wife	-2148
rug	-2149
▁brought	-2150
▁avail	-2151
▁business	-2152
▁sex	-2153
▁mother	-2154
▁fourth	-2155
▁events	-2156
▁towards	-2157
ving	-2158
azine	-2159
▁appoin	-2160
▁inj	-2161
▁critics	-2162
stit	-2163
adron	-2164
▁Ham	-2165
▁fell	-2166
ara	-2167
oms	-2168
▁Cap	-2169
▁generally	-2170
▁My	-2171
▁Ke	-2172
▁dev	-2173
▁Red	-2174
▁reve	-2175
▁mi	-2176
board	-2177
▁First	-2178
▁allowed	-2179
▁Hol	-2180
▁dou	-2181
nder	-2182
▁featured	-2183
▁either	-2184
sc	-2185
▁econom	-2186
▁ce	-2187
ential	-2188
▁current	-2189
uk	-2190
▁estim	-2191
earch	-2192
chie	-2193
▁neg	-2194
▁quick	-2195
ened	-2196
▁Wil	-2197
▁Washington	-2198
▁working	-2199
▁material	-2200
▁ball	-2201
▁fig	-2202
▁Best	-2203
▁rail	-2204
▁Pal	-2205
osition	-2206
▁southern	-2207
anch	-2208
▁resul	-2209
▁Richard	-2210
ourn	-2211
▁placed	-2212
▁reb	-2213
▁Despite	-2214
▁particip	-2215
ule	-2216
▁free	-2217
artment	-2218
▁hy	-2219
ville	-2220
ius	-2221
▁sour	-2222
▁Follow	-2223
▁goal	-2224
▁wanted	-2225
▁President	-2226
▁scene	-2227
▁office	-2228
▁scored	-2229
ength	-2230
arm	-2231
ino	-2232
▁Two	-2233
hester	-2234
▁replaced	-2235
▁runs	-2236
▁Thom	-2237
▁Gro	-2238
▁joined	-2239
▁court	-2240
▁Hall	-2241
▁Cour	-2242
▁Que	-2243
ills	-2244
▁Sing	-2245
▁believed	-2246
▁2003	-2247
be	-2248
▁Virgin	-2249
▁foc	-2250
iction	-2251
▁Colle	-2252
▁35	-2253
▁hours	-2254
ification	-2255
▁troops	-2256
▁Following	-2257
▁threat	-2258
erous	-2259
▁exc	-2260
▁designed	-2261
▁novel	-2262
cher	-2263
aut	-2264
uff	-2265
▁indic	-2266
aper	-2267
▁Lou	-2268
▁Je	-2269
uel	-2270
▁Play	-2271
▁soon	-2272
arch	-2273
▁mph	-2274
lin	-2275
▁army	-2276
▁Great	-2277
val	-2278
west	-2279
▁fund	-2280
▁largest	-2281
iff	-2282
▁Port	-2283
▁highway	-2284
▁Mal	-2285
▁grad	-2286
▁object	-2287
▁Mac	-2288
▁Rou	-2289
▁hor	-2290
▁priv	-2291
▁From	-2292
▁langu	-2293
▁opening	-2294
arn	-2295
▁Paul	-2296
ago	-2297
▁relig	-2298
▁possible	-2299
▁sequ	-2300
▁church	-2301
▁proper	-2302
▁surf	-2303
ze	-2304
ateg	-2305
▁finished	-2306
▁NY	-2307
▁Ale	-2308
▁hurricane	-2309
asion	-2310
▁training	-2311
merc	-2312
▁ly	-2313
▁Mary	-2314
rian	-2315
▁break	-2316
ights	-2317
fall	-2318
▁involved	-2319
▁available	-2320
▁White	-2321
▁°	-2322
▁Mil	-2323
▁But	-2324
▁Mart	-2325
of	-2326
ipp	-2327
▁Church	-2328
▁length	-2329
oor	-2330
ica	-2331
▁particularly	-2332
▁exist	-2333
▁International	-2334
▁earlier	-2335
ores	-2336
rey	-2337
▁desp	-2338
▁northern	-2339
▁2001	-2340
▁quar	-2341
▁Canada	-2342
▁initially	-2343
▁unc	-2344
▁party	-2345
anks	-2346
▁turned	-2347
▁victory	-2348
▁ill	-2349
atural	-2350
oul	-2351
▁highest	-2352
▁z	-2353
▁employ	-2354
▁president	-2355
aled	-2356
iforn	-2357
ems	-2358
▁contrib	-2359
▁Championship	-2360
▁must	-2361
▁Company	-2362
inist	-2363
▁nomin	-2364
iding	-2365
key	-2366
sel	-2367
▁percent	-2368
ston	-2369
▁saying	-2370
▁Kingdom	-2371
▁regular	-2372
▁Cup	-2373
▁contr	-2374
▁La	-2375
▁meas	-2376
▁piec	-2377
▁hom	-2378
co	-2379
enes	-2380
▁conduct	-2381
ude	-2382
▁dro	-2383
▁fall	-2384
▁respons	-2385
ecutive	-2386
ishing	-2387
▁Californ	-2388
▁Atl	-2389
▁praised	-2390
▁Bel	-2391
▁rul	-2392
ander	-2393
ilities	-2394
▁remov	-2395
ply	-2396
▁Don	-2397
▁units	-2398
▁McC	-2399
▁elements	-2400
anned	-2401
ume	-2402
▁regard	-2403
▁inn	-2404
ference	-2405
ique	-2406
▁change	-2407
▁passed	-2408
▁Res	-2409
▁2002	-2410
▁director	-2411
▁increased	-2412
▁forced	-2413
▁California	-2414
▁Dep	-2415
emor	-2416
▁stop	-2417
heast	-2418
▁ended	-2419
itor	-2420
▁Mexic	-2421
▁vot	-2422
▁keep	-2423
agon	-2424
anding	-2425
▁treat	-2426
▁above	-2427
▁educ	-2428
▁social	-2429
itte	-2430
ended	-2431
ump	-2432
▁phys	-2433
▁Thomas	-2434
▁Mount	-2435
▁disp	-2436
▁quest	-2437
▁love	-2438
▁185	-2439
▁hous	-2440
uture	-2441
rated	-2442
edy	-2443
▁past	-2444
ids	-2445
▁Navy	-2446
▁sym	-2447
▁shot	-2448
rem	-2449
now	-2450
▁Republic	-2451
bers	-2452
anish	-2453
▁Charles	-2454
▁central	-2455
▁appearance	-2456
▁football	-2457
BC	-2458
▁European	-2459
▁mean	-2460
▁ordered	-2461
▁Off	-2462
▁Smith	-2463
▁Sen	-2464
aughter	-2465
▁lower	-2466
rup	-2467
▁super	-2468
▁bill	-2469
▁winds	-2470
den	-2471
▁Route	-2472
▁Gold	-2473
▁Sl	-2474
▁Val	-2475
▁1990	-2476
▁hard	-2477
▁studio	-2478
com	-2479
ears	-2480
▁according	-2481
hib	-2482
alion	-2483
▁minutes	-2484
ography	-2485
▁signed	-2486
pped	-2487
ecess	-2488
▁park	-2489
▁taking	-2490
▁45	-2491
▁directed	-2492
etwork	-2493
▁positive	-2494
leg	-2495
▁immedi	-2496
▁enough	-2497
osing	-2498
▁beg	-2499
▁Associ	-2500
▁Oly	-2501
▁previously	-2502
arily	-2503
ership	-2504
inn	-2505
▁commerc	-2506
▁Olymp	-2507
▁spent	-2508
▁Rock	-2509
▁Christian	-2510
▁Tom	-2511
▁pers	-2512
▁required	-2513
elled	-2514
ows	-2515
for	-2516
asy	-2517
▁better	-2518
▁clear	-2519
▁groups	-2520
ios	-2521
▁Jackson	-2522
▁Met	-2523
oph	-2524
▁achie	-2525
▁Ac	-2526
▁speed	-2527
▁That	-2528
tr	-2529
ky	-2530
▁rain	-2531
▁gold	-2532
uter	-2533
▁going	-2534
▁Cast	-2535
▁Cro	-2536
nel	-2537
▁outside	-2538
▁itself	-2539
antry	-2540
▁move	-2541
▁nar	-2542
▁feel	-2543
lying	-2544
▁Cam	-2545
▁interview	-2546
▁£	-2547
▁rap	-2548
▁bridge	-2549
▁assist	-2550
ibility	-2551
▁pot	-2552
▁Govern	-2553
▁pur	-2554
▁failed	-2555
▁think	-2556
▁prob	-2557
▁states	-2558
▁?	-2559
erved	-2560
▁access	-2561
▁cou	-2562
▁come	-2563
usp	-2564
▁Peter	-2565
▁beginning	-2566
▁esp	-2567
▁told	-2568
▁civil	-2569
atin	-2570
▁whom	-2571
ulf	-2572
▁Award	-2573
▁independ	-2574
▁bi	-2575
▁Bur	-2576
▁prem	-2577
▁pain	-2578
▁score	-2579
uation	-2580
▁abs	-2581
▁travel	-2582
▁60	-2583
▁cred	-2584
▁subject	-2585
▁Ev	-2586
onst	-2587
▁wood	-2588
▁Sam	-2589
usion	-2590
▁Day	-2591
▁Court	-2592
▁reviews	-2593
▁introduced	-2594
oke	-2595
▁cru	-2596
▁nine	-2597
▁despite	-2598
itz	-2599
ands	-2600
▁Virginia	-2601
▁evidence	-2602
▁Mag	-2603
▁recording	-2604
▁Vict	-2605
▁ey	-2606
▁female	-2607
▁Ber	-2608
ittee	-2609
▁center	-2610
▁additional	-2611
▁Stud	-2612
▁viol	-2613
▁der	-2614
▁international	-2615
asc	-2616
▁whose	-2617
▁radio	-2618
ability	-2619
▁parts	-2620
ma	-2621
atory	-2622
rief	-2623
ks	-2624
▁sil	-2625
▁College	-2626
▁ap	-2627
het	-2628
ctor	-2629
▁section	-2630
isl	-2631
▁frequ	-2632
▁flood	-2633
▁study	-2634
▁transfer	-2635
aker	-2636
▁Hill	-2637
ergy	-2638
▁Mark	-2639
▁western	-2640
ready	-2641
▁phot	-2642
▁Frank	-2643
▁bird	-2644
igan	-2645
▁fort	-2646
▁territ	-2647
bor	-2648
ania	-2649
▁community	-2650
eum	-2651
▁acqu	-2652
▁slow	-2653
▁Up	-2654
▁Bay	-2655
▁Scott	-2656
▁Jos	-2657
▁1980	-2658
▁don	-2659
▁idea	-2660
apt	-2661
▁musical	-2662
▁Over	-2663
▁Mill	-2664
reng	-2665
▁Union	-2666
ida	-2667
asons	-2668
mar	-2669
▁UK	-2670
inese	-2671
▁clim	-2672
▁league	-2673
▁asked	-2674
▁liter	-2675
▁Awards	-2676
▁Brown	-2677
▁di	-2678
▁God	-2679
▁arrived	-2680
irth	-2681
▁Britain	-2682
▁product	-2683
▁future	-2684
▁Song	-2685
▁market	-2686
▁eastern	-2687
▁usually	-2688
▁give	-2689
▁Chinese	-2690
acted	-2691
▁food	-2692
▁issue	-2693
▁poor	-2694
▁size	-2695
ift	-2696
▁op	-2697
▁Times	-2698
ex	-2699
eal	-2700
ki	-2701
oo	-2702
▁Early	-2703
ecially	-2704
▁quickly	-2705
ites	-2706
▁36	-2707
▁32	-2708
▁occup	-2709
aries	-2710
inct	-2711
▁wat	-2712
▁approx	-2713
▁Cr	-2714
▁Cong	-2715
▁might	-2716
▁already	-2717
▁cal	-2718
▁Art	-2719
▁pressure	-2720
▁Most	-2721
▁river	-2722
▁che	-2723
▁India	-2724
▁claimed	-2725
▁carried	-2726
▁larger	-2727
airs	-2728
▁except	-2729
▁Western	-2730
▁hop	-2731
▁Grand	-2732
ully	-2733
▁episodes	-2734
▁construct	-2735
▁lines	-2736
▁defeated	-2737
▁certain	-2738
ga	-2739
yr	-2740
onse	-2741
▁deal	-2742
▁determ	-2743
▁contract	-2744
▁Du	-2745
aring	-2746
▁Mont	-2747
▁especially	-2748
back	-2749
▁prevent	-2750
liam	-2751
▁remaining	-2752
▁magazine	-2753
▁self	-2754
nes	-2755
ocr	-2756
▁cycl	-2757
▁students	-2758
▁1970	-2759
▁Alex	-2760
acing	-2761
▁streng	-2762
anded	-2763
▁sometimes	-2764
▁Later	-2765
▁proposed	-2766
▁friends	-2767
▁key	-2768
▁commission	-2769
▁trib	-2770
vey	-2771
▁latter	-2772
porary	-2773
▁shows	-2774
▁lyric	-2775
▁remain	-2776
▁surface	-2777
change	-2778
▁env	-2779
ession	-2780
▁estimated	-2781
▁Ben	-2782
liament	-2783
igade	-2784
▁Chic	-2785
▁80	-2786
▁debut	-2787
▁Pat	-2788
▁anti	-2789
ulated	-2790
▁minor	-2791
▁discuss	-2792
▁coin	-2793
▁limited	-2794
▁Germany	-2795
▁suggested	-2796
mon	-2797
▁lab	-2798
▁brief	-2799
▁1960	-2800
▁1999	-2801
▁Mo	-2802
▁money	-2803
▁Im	-2804
▁block	-2805
▁becoming	-2806
▁consider	-2807
incip	-2808
▁Hot	-2809
alled	-2810
▁commercial	-2811
▁guitar	-2812
▁complete	-2813
▁Dan	-2814
▁screen	-2815
▁If	-2816
▁draw	-2817
▁complet	-2818
▁destroyed	-2819
▁Los	-2820
▁language	-2821
▁doc	-2822
▁decision	-2823
▁prior	-2824
▁writer	-2825
unt	-2826
▁Force	-2827
▁Old	-2828
▁den	-2829
ror	-2830
ires	-2831
▁intended	-2832
enth	-2833
▁response	-2834
▁pil	-2835
anced	-2836
▁multip	-2837
▁awarded	-2838
▁Mer	-2839
▁date	-2840
▁vehic	-2841
▁tow	-2842
▁Association	-2843
▁Coun	-2844
iter	-2845
▁Pac	-2846
▁personal	-2847
ests	-2848
▁summer	-2849
▁deep	-2850
▁Bec	-2851
▁media	-2852
▁surround	-2853
▁China	-2854
▁entered	-2855
▁Second	-2856
gen	-2857
▁tax	-2858
▁winning	-2859
▁films	-2860
uit	-2861
▁Lake	-2862
▁girl	-2863
▁appointed	-2864
▁influence	-2865
▁oil	-2866
▁Many	-2867
▁type	-2868
▁effects	-2869
▁staff	-2870
▁Spanish	-2871
▁operations	-2872
▁184	-2873
▁Soc	-2874
▁teams	-2875
idents	-2876
ste	-2877
▁75	-2878
▁fail	-2879
▁wide	-2880
▁bur	-2881
ournal	-2882
▁helped	-2883
▁agreed	-2884
▁police	-2885
▁emer	-2886
▁provide	-2887
▁tar	-2888
▁susp	-2889
▁leaving	-2890
ha	-2891
▁Ot	-2892
▁prison	-2893
▁70	-2894
▁changes	-2895
inent	-2896
ension	-2897
▁Victor	-2898
▁nearly	-2899
▁investig	-2900
iation	-2901
▁1998	-2902
▁Ter	-2903
▁division	-2904
▁pay	-2905
▁mount	-2906
omer	-2907
▁married	-2908
▁sat	-2909
▁big	-2910
▁sea	-2911
▁transport	-2912
▁room	-2913
▁research	-2914
erve	-2915
▁higher	-2916
▁experience	-2917
era	-2918
▁Franc	-2919
▁quarter	-2920
▁33	-2921
▁concern	-2922
▁Oper	-2923
▁Club	-2924
▁stars	-2925
▁Rob	-2926
▁pen	-2927
▁Film	-2928
▁Wood	-2929
▁overall	-2930
rial	-2931
▁Adm	-2932
atively	-2933
▁broadcast	-2934
▁jud	-2935
▁Canadian	-2936
▁remains	-2937
atives	-2938
▁equip	-2939
andon	-2940
▁increasing	-2941
teen	-2942
ss	-2943
ending	-2944
▁daughter	-2945
▁Louis	-2946
▁copies	-2947
▁private	-2948
▁Str	-2949
▁Chicago	-2950
▁Mur	-2951
▁rights	-2952
▁purch	-2953
▁living	-2954
▁changed	-2955
berg	-2956
▁flow	-2957
imum	-2958
▁complex	-2959
can	-2960
aded	-2961
▁Manc	-2962
▁Jim	-2963
▁-	-2964
uing	-2965
▁contro	-2966
▁weap	-2967
▁300	-2968
▁kil	-2969
▁space	-2970
▁imm	-2971
▁lo	-2972
ronic	-2973
▁Fort	-2974
▁History	-2975
ederal	-2976
▁Town	-2977
▁Green	-2978
▁voice	-2979
▁related	-2980
▁fleet	-2981
▁Pacific	-2982
AA	-2983
▁natural	-2984
▁arrang	-2985
▁approximately	-2986
▁Tex	-2987
▁producer	-2988
▁Ital	-2989
▁buildings	-2990
▁supported	-2991
sy	-2992
▁Flor	-2993
▁Miss	-2994
iral	-2995
▁Step	-2996
▁Inf	-2997
▁Edward	-2998
▁Enter	-2999
▁deg	-3000
▁running	-3001
▁Carol	-3002
▁done	-3003
▁Atlantic	-3004
selves	-3005
▁establish	-3006
▁themselves	-3007
▁Ol	-3008
▁conclud	-3009
▁Penn	-3010
▁dark	-3011
▁paren	-3012
ises	-3013
▁boy	-3014
▁diss	-3015
▁Inter	-3016
▁bring	-3017
▁chall	-3018
▁mostly	-3019
▁Back	-3020
ij	-3021
dle	-3022
▁soldiers	-3023
▁countries	-3024
▁Ant	-3025
tained	-3026
▁polic	-3027
▁longer	-3028
ging	-3029
ounds	-3030
▁sales	-3031
▁temper	-3032
▁distrib	-3033
▁1997	-3034
▁forward	-3035
▁syn	-3036
ena	-3037
▁feature	-3038
▁election	-3039
reater	-3040
▁breed	-3041
▁create	-3042
ospital	-3043
▁our	-3044
▁favor	-3045
oe	-3046
▁bow	-3047
▁Just	-3048
▁fifth	-3049
▁structure	-3050
▁Pri	-3051
▁concept	-3052
▁damaged	-3053
▁dram	-3054
▁compared	-3055
▁Fle	-3056
▁Since	-3057
▁App	-3058
thing	-3059
abit	-3060
▁intens	-3061
▁dead	-3062
iser	-3063
▁woman	-3064
▁includes	-3065
▁numbers	-3066
▁tons	-3067
▁Const	-3068
▁Serv	-3069
▁issued	-3070
ado	-3071
hips	-3072
▁board	-3073
▁thus	-3074
▁ens	-3075
▁Both	-3076
▁Love	-3077
▁ranked	-3078
▁mixed	-3079
▁terms	-3080
▁probably	-3081
▁officers	-3082
▁planned	-3083
▁compan	-3084
ria	-3085
▁lyrics	-3086
▁capital	-3087
rd	-3088
▁Batt	-3089
▁likely	-3090
▁Billboard	-3091
▁heav	-3092
▁canc	-3093
II	-3094
▁tor	-3095
▁tracks	-3096
▁captured	-3097
▁scenes	-3098
pris	-3099
▁Manchester	-3100
▁ult	-3101
iqu	-3102
etic	-3103
▁cat	-3104
▁fir	-3105
▁always	-3106
ari	-3107
▁course	-3108
▁Scot	-3109
▁initial	-3110
▁extended	-3111
▁Council	-3112
▁withd	-3113
▁problems	-3114
umn	-3115
lebr	-3116
▁Sal	-3117
▁plant	-3118
hood	-3119
▁scient	-3120
▁yards	-3121
itt	-3122
▁really	-3123
uries	-3124
hold	-3125
▁movement	-3126
▁individual	-3127
▁target	-3128
olic	-3129
▁script	-3130
▁Its	-3131
enty	-3132
▁Not	-3133
▁colon	-3134
ny	-3135
ties	-3136
oint	-3137
▁model	-3138
▁norm	-3139
▁cann	-3140
down	-3141
▁Party	-3142
▁lived	-3143
ironment	-3144
▁whether	-3145
cing	-3146
ograph	-3147
▁Super	-3148
▁Another	-3149
▁Dem	-3150
▁status	-3151
▁location	-3152
onna	-3153
riage	-3154
utch	-3155
uth	-3156
ections	-3157
▁Sea	-3158
▁Do	-3159
▁attend	-3160
▁via	-3161
▁network	-3162
▁Jew	-3163
▁cm	-3164
iant	-3165
▁amb	-3166
lands	-3167
▁shown	-3168
▁professional	-3169
uz	-3170
well	-3171
▁Bow	-3172
ware	-3173
▁prec	-3174
▁Center	-3175
tered	-3176
order	-3177
▁fans	-3178
▁pit	-3179
▁Dist	-3180
▁inspired	-3181
itation	-3182
ibr	-3183
uals	-3184
▁Sever	-3185
▁raised	-3186
vin	-3187
▁administ	-3188
ady	-3189
▁TV	-3190
▁domin	-3191
▁discovered	-3192
umed	-3193
imin	-3194
iles	-3195
▁1950	-3196
▁Games	-3197
reak	-3198
▁subsequently	-3199
▁Bra	-3200
▁emb	-3201
▁Rad	-3202
orning	-3203
▁immediately	-3204
▁makes	-3205
▁uns	-3206
▁anc	-3207
ously	-3208
▁visit	-3209
▁Bat	-3210
▁meeting	-3211
▁Tor	-3212
▁ran	-3213
▁increase	-3214
▁plans	-3215
NA	-3216
▁Rail	-3217
isions	-3218
▁Kn	-3219
▁BC	-3220
▁mach	-3221
▁mur	-3222
▁services	-3223
▁respectively	-3224
▁leave	-3225
▁Des	-3226
▁attacks	-3227
▁manager	-3228
▁approach	-3229
▁38	-3230
▁face	-3231
▁associated	-3232
▁Year	-3233
▁Michigan	-3234
▁upper	-3235
▁focus	-3236
▁Big	-3237
ription	-3238
bour	-3239
▁consist	-3240
▁Lord	-3241
▁removed	-3242
▁183	-3243
▁experi	-3244
cy	-3245
▁Mr	-3246
▁Sun	-3247
▁Viet	-3248
▁assigned	-3249
▁Africa	-3250
itect	-3251
▁180	-3252
▁react	-3253
▁smaller	-3254
▁standard	-3255
▁village	-3256
▁Boy	-3257
▁inters	-3258
▁battles	-3259
▁yard	-3260
▁37	-3261
▁Crit	-3262
▁sch	-3263
▁launched	-3264
▁health	-3265
▁Angeles	-3266
▁adop	-3267
▁trade	-3268
aches	-3269
▁grant	-3270
▁sem	-3271
gely	-3272
▁Mexico	-3273
▁1995	-3274
▁suffered	-3275
burg	-3276
▁cause	-3277
▁Camp	-3278
▁Earth	-3279
▁exam	-3280
▁underst	-3281
venue	-3282
▁stay	-3283
▁majority	-3284
▁appears	-3285
▁mission	-3286
▁operation	-3287
de	-3288
▁offered	-3289
win	-3290
▁something	-3291
▁yet	-3292
▁Queen	-3293
▁How	-3294
▁plot	-3295
▁nature	-3296
▁Law	-3297
▁Trans	-3298
▁Squadron	-3299
ounted	-3300
uments	-3301
▁shoot	-3302
▁birth	-3303
▁industry	-3304
undred	-3305
▁numerous	-3306
▁occurred	-3307
▁bad	-3308
▁instr	-3309
▁altern	-3310
▁Highway	-3311
olk	-3312
▁Ma	-3313
▁2016	-3314
▁got	-3315
▁Pet	-3316
▁Florida	-3317
iest	-3318
▁job	-3319
▁Martin	-3320
▁Sir	-3321
▁lay	-3322
▁carry	-3323
▁slight	-3324
ails	-3325
▁Gar	-3326
▁depart	-3327
▁saf	-3328
aught	-3329
▁word	-3330
▁Final	-3331
▁collect	-3332
▁coach	-3333
▁largely	-3334
joy	-3335
olf	-3336
▁Out	-3337
▁sett	-3338
▁Corps	-3339
▁moving	-3340
▁contains	-3341
▁referred	-3342
▁religious	-3343
▁sen	-3344
itude	-3345
▁Kenn	-3346
▁primary	-3347
▁selected	-3348
▁incor	-3349
▁accomp	-3350
vert	-3351
▁artist	-3352
▁Bet	-3353
▁financ	-3354
▁leader	-3355
▁celebr	-3356
▁Kent	-3357
cean	-3358
▁electric	-3359
▁touch	-3360
▁meth	-3361
▁Ro	-3362
▁schools	-3363
uf	-3364
▁revealed	-3365
ify	-3366
▁Emp	-3367
▁books	-3368
▁flight	-3369
▁issues	-3370
▁finally	-3371
▁flag	-3372
▁confir	-3373
house	-3374
▁1996	-3375
bridge	-3376
▁analy	-3377
▁listed	-3378
▁sal	-3379
▁officer	-3380
▁information	-3381
▁names	-3382
▁Cont	-3383
▁rate	-3384
▁conditions	-3385
▁commented	-3386
uated	-3387
▁Tour	-3388
▁bene	-3389
▁whole	-3390
▁cer	-3391
▁princip	-3392
▁hour	-3393
sen	-3394
▁49	-3395
▁Cross	-3396
▁heart	-3397
▁sched	-3398
▁Italian	-3399
▁talk	-3400
ective	-3401
▁needed	-3402
▁critical	-3403
▁Brad	-3404
▁1994	-3405
aging	-3406
▁Cle	-3407
▁closed	-3408
iled	-3409
▁Care	-3410
▁goals	-3411
estival	-3412
aily	-3413
ider	-3414
▁pow	-3415
ili	-3416
▁34	-3417
▁purp	-3418
▁takes	-3419
izing	-3420
urity	-3421
▁below	-3422
▁grand	-3423
▁earned	-3424
enant	-3425
▁179	-3426
▁composed	-3427
▁link	-3428
▁active	-3429
▁attempted	-3430
ples	-3431
lo	-3432
▁Rev	-3433
▁Hel	-3434
▁mom	-3435
oes	-3436
▁1940	-3437
ault	-3438
▁contem	-3439
▁singer	-3440
▁cand	-3441
▁unit	-3442
adium	-3443
▁attacked	-3444
▁competition	-3445
▁Congress	-3446
▁90	-3447
▁Under	-3448
▁Nort	-3449
▁reason	-3450
▁Mass	-3451
ortun	-3452
▁education	-3453
▁question	-3454
che	-3455
▁Bost	-3456
▁double	-3457
▁male	-3458
▁max	-3459
▁Group	-3460
▁secret	-3461
▁resulted	-3462
echan	-3463
VD	-3464
▁Haw	-3465
▁Rh	-3466
▁dig	-3467
▁Wal	-3468
▁Johnson	-3469
▁Long	-3470
▁minute	-3471
▁Sov	-3472
ani	-3473
▁sister	-3474
▁attention	-3475
ruck	-3476
▁Fore	-3477
▁request	-3478
▁qual	-3479
▁forest	-3480
▁energy	-3481
ka	-3482
oud	-3483
▁African	-3484
▁thr	-3485
▁college	-3486
ether	-3487
▁combat	-3488
ams	-3489
▁walk	-3490
▁neigh	-3491
▁declared	-3492
▁artic	-3493
▁records	-3494
ait	-3495
ys	-3496
▁III	-3497
▁enjoy	-3498
▁depression	-3499
▁kind	-3500
ken	-3501
▁Zeal	-3502
MS	-3503
ounts	-3504
reme	-3505
▁Tur	-3506
▁meant	-3507
quar	-3508
▁method	-3509
▁abandon	-3510
▁recover	-3511
▁Major	-3512
▁Texas	-3513
▁legisl	-3514
▁expected	-3515
▁fighting	-3516
road	-3517
▁1992	-3518
▁Er	-3519
▁audience	-3520
aine	-3521
▁Central	-3522
irt	-3523
▁performances	-3524
▁text	-3525
▁Soviet	-3526
aped	-3527
▁unable	-3528
▁traditional	-3529
▁Boston	-3530
▁+	-3531
amb	-3532
▁theme	-3533
▁Russian	-3534
▁compl	-3535
▁Williams	-3536
▁Several	-3537
icted	-3538
▁Ann	-3539
▁Zealand	-3540
▁Southern	-3541
▁necess	-3542
▁ang	-3543
isher	-3544
▁Acad	-3545
▁account	-3546
▁DVD	-3547
icient	-3548
ona	-3549
▁Kh	-3550
▁nuc	-3551
▁science	-3552
▁means	-3553
▁ris	-3554
▁newsp	-3555
la	-3556
ibly	-3557
▁rare	-3558
▁function	-3559
▁centre	-3560
▁serious	-3561
▁ability	-3562
anes	-3563
icated	-3564
▁stating	-3565
▁constructed	-3566
▁Wales	-3567
▁annual	-3568
▁cit	-3569
▁elected	-3570
▁notes	-3571
▁counter	-3572
eway	-3573
▁Sur	-3574
▁continue	-3575
▁commander	-3576
▁Del	-3577
lor	-3578
▁highly	-3579
▁covered	-3580
▁dra	-3581
ervation	-3582
ening	-3583
▁levels	-3584
▁Dou	-3585
▁tur	-3586
▁Time	-3587
fect	-3588
▁effort	-3589
▁mention	-3590
▁Midd	-3591
▁wing	-3592
▁middle	-3593
▁Norm	-3594
▁disapp	-3595
ih	-3596
▁Foot	-3597
▁chief	-3598
▁defeat	-3599
▁ending	-3600
▁Minister	-3601
▁pair	-3602
shire	-3603
oses	-3604
▁univers	-3605
▁1930	-3606
▁constit	-3607
▁attended	-3608
▁document	-3609
yal	-3610
▁Pre	-3611
use	-3612
▁39	-3613
▁pick	-3614
ylv	-3615
atre	-3616
▁positions	-3617
▁separate	-3618
▁presented	-3619
▁Arm	-3620
▁dom	-3621
rical	-3622
▁traff	-3623
▁tried	-3624
▁Greek	-3625
▁42	-3626
▁Department	-3627
▁Saint	-3628
ares	-3629
▁reduced	-3630
▁refused	-3631
▁box	-3632
▁giving	-3633
▁letter	-3634
▁har	-3635
▁meaning	-3636
▁Ire	-3637
▁Mel	-3638
▁Matt	-3639
▁practice	-3640
▁championship	-3641
▁reject	-3642
▁Chart	-3643
▁produce	-3644
▁accepted	-3645
▁cle	-3646
▁rat	-3647
ector	-3648
cle	-3649
kin	-3650
▁rapid	-3651
thlet	-3652
▁rein	-3653
▁matches	-3654
eph	-3655
band	-3656
▁Ireland	-3657
▁1993	-3658
bed	-3659
ansion	-3660
▁dut	-3661
▁Cath	-3662
▁Team	-3663
ounded	-3664
▁inches	-3665
▁architect	-3666
acher	-3667
▁words	-3668
ieut	-3669
ping	-3670
▁nearby	-3671
aph	-3672
▁du	-3673
ining	-3674
▁sides	-3675
▁Tre	-3676
▁Fer	-3677
▁Sol	-3678
▁Arch	-3679
▁distinct	-3680
▁prep	-3681
▁41	-3682
▁hundred	-3683
▁asp	-3684
▁edition	-3685
▁directly	-3686
▁55	-3687
umber	-3688
very	-3689
▁environment	-3690
▁Three	-3691
▁direction	-3692
▁400	-3693
▁lear	-3694
▁sevent	-3695
illed	-3696
▁Form	-3697
▁begins	-3698
▁recomm	-3699
▁settle	-3700
▁seem	-3701
▁efforts	-3702
▁ge	-3703
▁variety	-3704
▁1991	-3705
▁drum	-3706
lict	-3707
▁Battalion	-3708
▁i	-3709
thur	-3710
vement	-3711
▁47	-3712
anna	-3713
▁48	-3714
ogue	-3715
▁Cons	-3716
▁movie	-3717
▁dise	-3718
▁Sum	-3719
▁Book	-3720
▁vocals	-3721
like	-3722
▁houses	-3723
▁incorpor	-3724
ims	-3725
▁purs	-3726
▁forms	-3727
▁nation	-3728
oly	-3729
▁mor	-3730
astic	-3731
vention	-3732
stein	-3733
ighter	-3734
icip	-3735
▁Hurricane	-3736
wh	-3737
odies	-3738
▁Kore	-3739
▁Vietn	-3740
▁Leg	-3741
▁Ox	-3742
rier	-3743
ishop	-3744
▁uses	-3745
ux	-3746
illery	-3747
utions	-3748
▁twenty	-3749
▁Sil	-3750
▁watch	-3751
▁advance	-3752
ingu	-3753
▁Scotland	-3754
awn	-3755
sis	-3756
wide	-3757
▁metres	-3758
▁Ott	-3759
▁hot	-3760
under	-3761
▁responsible	-3762
▁kilomet	-3763
osen	-3764
▁founded	-3765
gl	-3766
▁182	-3767
▁culture	-3768
track	-3769
ils	-3770
alle	-3771
▁Latin	-3772
▁avoid	-3773
▁marriage	-3774
▁Their	-3775
▁writers	-3776
ieutenant	-3777
▁presence	-3778
▁continues	-3779
▁Stephen	-3780
▁amount	-3781
▁cerem	-3782
▁Captain	-3783
▁stories	-3784
▁horse	-3785
▁arrest	-3786
ulations	-3787
ero	-3788
▁dism	-3789
▁showed	-3790
light	-3791
▁plat	-3792
▁transferred	-3793
▁legal	-3794
▁specific	-3795
▁starting	-3796
ceeded	-3797
▁181	-3798
▁demonst	-3799
▁royal	-3800
▁Mic	-3801
▁repe	-3802
▁mechan	-3803
▁Jer	-3804
▁Lit	-3805
imate	-3806
▁train	-3807
▁So	-3808
▁lif	-3809
▁morning	-3810
cend	-3811
▁greater	-3812
▁display	-3813
ette	-3814
ellow	-3815
gs	-3816
▁Records	-3817
▁Lee	-3818
▁1944	-3819
▁Empire	-3820
▁castle	-3821
▁resulting	-3822
za	-3823
▁Bob	-3824
▁burn	-3825
▁Dutch	-3826
▁tourn	-3827
▁marked	-3828
▁Carl	-3829
▁kept	-3830
▁selling	-3831
▁observed	-3832
emorial	-3833
▁vocal	-3834
▁conducted	-3835
▁things	-3836
▁becomes	-3837
▁opt	-3838
▁1945	-3839
▁fast	-3840
▁thick	-3841
stitute	-3842
▁collabor	-3843
▁enemy	-3844
▁square	-3845
▁controvers	-3846
▁Win	-3847
osaur	-3848
▁allowing	-3849
▁collection	-3850
▁source	-3851
writ	-3852
▁doll	-3853
▁wild	-3854
▁quality	-3855
▁cust	-3856
antasy	-3857
bury	-3858
▁Like	-3859
peror	-3860
▁encoun	-3861
▁managed	-3862
▁ded	-3863
▁Spec	-3864
▁Test	-3865
▁economic	-3866
▁blood	-3867
▁traffic	-3868
▁attempts	-3869
▁Ell	-3870
▁Chris	-3871
ellig	-3872
▁innings	-3873
onic	-3874
▁your	-3875
ecting	-3876
▁inside	-3877
oper	-3878
▁Class	-3879
arian	-3880
▁compos	-3881
▁Before	-3882
▁peaked	-3883
▁write	-3884
▁cases	-3885
▁bank	-3886
▁perm	-3887
▁Gil	-3888
▁Tim	-3889
▁companies	-3890
▁torped	-3891
▁dropped	-3892
▁portray	-3893
rugg	-3894
▁Dun	-3895
▁county	-3896
▁Admiral	-3897
▁cyclone	-3898
▁log	-3899
▁More	-3900
▁symb	-3901
▁impact	-3902
▁potential	-3903
▁Fox	-3904
▁foreign	-3905
ancy	-3906
▁Four	-3907
▁Nin	-3908
▁spir	-3909
▁Irish	-3910
▁Bridge	-3911
isation	-3912
▁candid	-3913
▁Service	-3914
urt	-3915
oration	-3916
▁Columb	-3917
▁Parliament	-3918
right	-3919
▁chap	-3920
▁wor	-3921
▁spot	-3922
▁share	-3923
▁relatively	-3924
▁44	-3925
force	-3926
▁subst	-3927
ricket	-3928
▁figure	-3929
▁contrast	-3930
▁Dar	-3931
▁path	-3932
▁exped	-3933
▁portion	-3934
▁parents	-3935
▁Sar	-3936
▁birds	-3937
▁spl	-3938
▁schol	-3939
▁hus	-3940
▁Jeff	-3941
▁Brigade	-3942
▁piece	-3943
▁concluded	-3944
mas	-3945
▁exhib	-3946
▁scale	-3947
▁acting	-3948
▁actually	-3949
▁era	-3950
▁hero	-3951
▁scoring	-3952
▁sought	-3953
▁powerful	-3954
▁Stone	-3955
▁interp	-3956
uge	-3957
▁cas	-3958
▁suppl	-3959
▁onto	-3960
▁Pan	-3961
▁65	-3962
▁Secret	-3963
▁struck	-3964
▁respond	-3965
▁primarily	-3966
▁titled	-3967
▁ess	-3968
▁society	-3969
▁mess	-3970
▁maximum	-3971
▁ple	-3972
▁premi	-3973
▁artists	-3974
▁greatest	-3975
▁Fin	-3976
▁actions	-3977
adel	-3978
▁older	-3979
▁rough	-3980
sych	-3981
▁batter	-3982
▁conver	-3983
▁ir	-3984
▁beat	-3985
▁owned	-3986
▁Tri	-3987
▁property	-3988
▁vo	-3989
▁slightly	-3990
▁strugg	-3991
▁1942	-3992
▁trial	-3993
▁situation	-3994
▁1941	-3995
▁Youn	-3996
▁Committee	-3997
eck	-3998
▁journal	-3999
▁independent	-4000
ship	-4001
▁tend	-4002
▁viewers	-4003
▁behav	-4004
▁raid	-4005
▁64	-4006
arent	-4007
▁Post	-4008
▁Def	-4009
mond	-4010
▁cho	-4011
▁defend	-4012
▁Because	-4013
▁say	-4014
▁opportun	-4015
ya	-4016
▁Northern	-4017
ien	-4018
▁concert	-4019
▁lot	-4020
▁Arab	-4021
▁Life	-4022
▁distance	-4023
▁territory	-4024
▁metal	-4025
▁financial	-4026
▁Tem	-4027
bon	-4028
▁43	-4029
while	-4030
▁wall	-4031
▁theory	-4032
▁versions	-4033
▁corn	-4034
aven	-4035
istics	-4036
▁Series	-4037
▁weather	-4038
▁webs	-4039
▁Paris	-4040
lection	-4041
▁systems	-4042
▁Go	-4043
▁designated	-4044
istry	-4045
▁Good	-4046
▁Van	-4047
▁multiple	-4048
▁Society	-4049
▁sources	-4050
▁rating	-4051
rative	-4052
sw	-4053
ees	-4054
▁suc	-4055
▁Bu	-4056
▁Max	-4057
▁rule	-4058
▁sout	-4059
eds	-4060
ylvania	-4061
▁inch	-4062
▁Produ	-4063
▁Carolina	-4064
▁Gre	-4065
▁sexual	-4066
▁Academy	-4067
▁completely	-4068
▁featuring	-4069
▁reaching	-4070
ented	-4071
▁Chief	-4072
rid	-4073
▁progress	-4074
▁Orig	-4075
▁thous	-4076
▁Hung	-4077
▁vess	-4078
▁naval	-4079
▁charge	-4080
▁strength	-4081
▁background	-4082
▁subsequent	-4083
thel	-4084
perial	-4085
quarters	-4086
iated	-4087
▁Add	-4088
▁emot	-4089
▁influenced	-4090
▁Stan	-4091
▁Football	-4092
▁Oh	-4093
annel	-4094
oured	-4095
▁ultimately	-4096
▁today	-4097
▁Joseph	-4098
▁Harrison	-4099
▁sn	-4100
▁Pop	-4101
▁sense	-4102
▁task	-4103
▁pilot	-4104
▁reception	-4105
ada	-4106
▁Conf	-4107
▁broke	-4108
udd	-4109
▁cam	-4110
▁citiz	-4111
TV	-4112
▁plays	-4113
▁Wilson	-4114
▁calling	-4115
▁Work	-4116
▁recent	-4117
▁federal	-4118
▁Entertain	-4119
▁kg	-4120
▁Infantry	-4121
▁activity	-4122
rel	-4123
▁paid	-4124
▁widely	-4125
iced	-4126
▁weaken	-4127
▁Mod	-4128
▁News	-4129
▁Little	-4130
ighth	-4131
▁Wall	-4132
▁resc	-4133
▁mainly	-4134
▁northeast	-4135
▁Commission	-4136
load	-4137
iance	-4138
▁divided	-4139
ita	-4140
▁Dis	-4141
▁true	-4142
▁Light	-4143
▁captain	-4144
▁passing	-4145
▁conflict	-4146
iring	-4147
▁Oxford	-4148
▁adj	-4149
▁Dire	-4150
▁ice	-4151
inet	-4152
▁Penns	-4153
▁Museum	-4154
▁officials	-4155
▁46	-4156
▁Ill	-4157
▁husband	-4158
▁weapons	-4159
acts	-4160
gian	-4161
gypt	-4162
▁Land	-4163
▁Civil	-4164
▁Prince	-4165
▁Bre	-4166
▁Us	-4167
▁1920	-4168
▁ring	-4169
▁peace	-4170
▁vehicles	-4171
▁Americans	-4172
BA	-4173
▁bound	-4174
▁Democr	-4175
▁expressed	-4176
nown	-4177
▁Colon	-4178
▁winter	-4179
illa	-4180
▁Bell	-4181
▁dance	-4182
een	-4183
▁transl	-4184
▁Jenn	-4185
▁content	-4186
▁Alb	-4187
▁1989	-4188
otyp	-4189
▁Luc	-4190
olved	-4191
▁Girl	-4192
rown	-4193
rupt	-4194
▁cert	-4195
▁Egypt	-4196
ube	-4197
▁mem	-4198
▁hun	-4199
▁hospital	-4200
▁gar	-4201
▁student	-4202
▁says	-4203
▁Creek	-4204
▁Den	-4205
▁Lu	-4206
▁wear	-4207
▁alone	-4208
▁termin	-4209
▁Entertainment	-4210
▁weight	-4211
▁residents	-4212
ategory	-4213
▁Bond	-4214
▁Through	-4215
▁jun	-4216
▁mel	-4217
▁studies	-4218
▁northwest	-4219
ersey	-4220
▁Ha	-4221
▁iron	-4222
▁alongside	-4223
▁Hor	-4224
▁walls	-4225
▁growth	-4226
▁problem	-4227
▁inte	-4228
hew	-4229
ols	-4230
▁albums	-4231
▁Bus	-4232
▁Sant	-4233
▁tower	-4234
▁promoted	-4235
urban	-4236
ibrary	-4237
▁spread	-4238
▁Regiment	-4239
▁Ver	-4240
▁animals	-4241
▁blue	-4242
▁mind	-4243
▁actor	-4244
▁encour	-4245
▁represented	-4246
▁Rom	-4247
▁Histor	-4248
▁tun	-4249
▁sust	-4250
▁150	-4251
▁shortly	-4252
ym	-4253
▁negot	-4254
▁Homer	-4255
▁reform	-4256
aling	-4257
orses	-4258
▁doub	-4259
▁supp	-4260
▁hands	-4261
ication	-4262
▁toward	-4263
▁Dam	-4264
▁thir	-4265
▁border	-4266
▁Mat	-4267
▁cell	-4268
▁argued	-4269
rowd	-4270
▁farm	-4271
▁nominated	-4272
▁52	-4273
▁serve	-4274
▁Hit	-4275
tation	-4276
▁matter	-4277
▁Upon	-4278
essions	-4279
▁cities	-4280
▁Catholic	-4281
town	-4282
▁figures	-4283
▁ox	-4284
ayer	-4285
eption	-4286
▁wit	-4287
mark	-4288
▁phil	-4289
▁offer	-4290
▁heavily	-4291
▁combined	-4292
▁occasion	-4293
ips	-4294
▁Jud	-4295
AF	-4296
▁Tw	-4297
▁drug	-4298
▁Young	-4299
▁proved	-4300
rate	-4301
▁pun	-4302
▁coal	-4303
▁search	-4304
itan	-4305
▁concent	-4306
ampion	-4307
▁confirmed	-4308
▁coming	-4309
▁gas	-4310
▁guest	-4311
▁ast	-4312
▁aired	-4313
▁Though	-4314
▁gained	-4315
▁policy	-4316
iano	-4317
▁Commun	-4318
▁results	-4319
▁favour	-4320
▁disease	-4321
▁contemporary	-4322
▁news	-4323
▁seek	-4324
▁600	-4325
▁seasons	-4326
▁explained	-4327
▁identified	-4328
▁soundtrack	-4329
rong	-4330
▁stone	-4331
▁criticized	-4332
ota	-4333
ports	-4334
▁invasion	-4335
▁officially	-4336
▁laws	-4337
▁sixth	-4338
▁Tod	-4339
▁Gall	-4340
▁stra	-4341
▁Pennsylvania	-4342
▁Exp	-4343
▁seconds	-4344
acks	-4345
▁Fred	-4346
inem	-4347
acity	-4348
▁prominent	-4349
▁Way	-4350
▁Card	-4351
▁poet	-4352
▁Tropical	-4353
▁tournament	-4354
▁Gard	-4355
▁rang	-4356
▁typically	-4357
▁image	-4358
▁Middle	-4359
▁la	-4360
lers	-4361
▁artillery	-4362
bur	-4363
lam	-4364
▁couple	-4365
▁attract	-4366
▁Di	-4367
▁85	-4368
▁Fe	-4369
ledge	-4370
▁emph	-4371
▁activities	-4372
▁equipment	-4373
▁pan	-4374
▁Italy	-4375
▁physical	-4376
▁fired	-4377
▁step	-4378
▁Avenue	-4379
▁causing	-4380
▁Jul	-4381
▁51	-4382
▁Olympic	-4383
▁require	-4384
▁setting	-4385
▁affected	-4386
och	-4387
ners	-4388
▁pal	-4389
▁pieces	-4390
▁apparent	-4391
▁operated	-4392
▁1943	-4393
▁attrib	-4394
▁reference	-4395
▁Week	-4396
▁Wind	-4397
▁Live	-4398
▁organization	-4399
▁BBC	-4400
rane	-4401
▁Wild	-4402
▁instit	-4403
▁remark	-4404
▁Sat	-4405
▁Dark	-4406
▁risk	-4407
▁Sub	-4408
▁Tra	-4409
ables	-4410
▁Show	-4411
▁eas	-4412
▁Mean	-4413
▁paper	-4414
▁returning	-4415
▁Beat	-4416
▁fully	-4417
▁follows	-4418
azz	-4419
▁Ry	-4420
▁Hal	-4421
▁Valley	-4422
▁reports	-4423
▁exec	-4424
▁degree	-4425
embly	-4426
▁medical	-4427
▁rainfall	-4428
iny	-4429
▁bul	-4430
▁Bush	-4431
▁senior	-4432
▁passes	-4433
▁sequence	-4434
▁rom	-4435
▁unk	-4436
▁Duke	-4437
onents	-4438
▁Field	-4439
ushed	-4440
▁propos	-4441
resp	-4442
▁chem	-4443
amber	-4444
▁Jones	-4445
▁Christmas	-4446
▁frequently	-4447
min	-4448
▁sens	-4449
▁stations	-4450
▁ut	-4451
▁Kar	-4452
▁displ	-4453
▁value	-4454
▁element	-4455
▁Bon	-4456
▁executive	-4457
▁historian	-4458
aga	-4459
▁planet	-4460
▁therefore	-4461
▁Guard	-4462
▁Holly	-4463
▁editor	-4464
▁debuted	-4465
▁god	-4466
▁murder	-4467
▁doing	-4468
▁laid	-4469
▁Fleet	-4470
▁condition	-4471
inary	-4472
▁Develop	-4473
▁leaders	-4474
▁Governor	-4475
▁1986	-4476
▁surre	-4477
▁singles	-4478
▁accident	-4479
▁floor	-4480
enge	-4481
▁Hard	-4482
pool	-4483
▁magn	-4484
▁Short	-4485
▁waters	-4486
▁consisted	-4487
ifying	-4488
▁honor	-4489
▁treatment	-4490
ote	-4491
ager	-4492
▁flying	-4493
▁tells	-4494
▁1987	-4495
agn	-4496
appen	-4497
▁Croat	-4498
▁Miller	-4499
▁capture	-4500
andy	-4501
▁bit	-4502
lines	-4503
▁green	-4504
▁appearances	-4505
▁boat	-4506
▁Aut	-4507
▁Rog	-4508
▁measure	-4509
▁Ly	-4510
▁Album	-4511
▁maintained	-4512
▁fiction	-4513
elve	-4514
▁Jac	-4515
▁schedul	-4516
▁homes	-4517
▁contest	-4518
▁express	-4519
▁visited	-4520
▁worldwide	-4521
▁ahead	-4522
▁habit	-4523
ricult	-4524
▁cannot	-4525
▁defense	-4526
▁Top	-4527
▁fuel	-4528
▁orders	-4529
▁resist	-4530
▁pattern	-4531
▁contained	-4532
▁chosen	-4533
▁95	-4534
uous	-4535
▁pict	-4536
▁agreement	-4537
▁instrument	-4538
omy	-4539
▁Gal	-4540
antly	-4541
▁grew	-4542
▁prepar	-4543
▁Head	-4544
emic	-4545
▁hyd	-4546
ocked	-4547
▁railway	-4548
▁Victoria	-4549
▁54	-4550
▁emphas	-4551
chest	-4552
▁Hy	-4553
▁send	-4554
▁District	-4555
▁Background	-4556
anger	-4557
▁Writ	-4558
▁reign	-4559
▁Det	-4560
▁Storm	-4561
▁losing	-4562
▁surrounding	-4563
ety	-4564
▁killing	-4565
▁Harry	-4566
▁Charl	-4567
▁injury	-4568
▁claims	-4569
▁serving	-4570
▁participated	-4571
ivity	-4572
▁Blue	-4573
ourney	-4574
▁1988	-4575
▁extr	-4576
▁Operation	-4577
▁individuals	-4578
▁seg	-4579
▁leaves	-4580
▁squadron	-4581
▁shell	-4582
ruit	-4583
▁label	-4584
▁feed	-4585
▁explos	-4586
aming	-4587
ilies	-4588
▁unknown	-4589
▁accompan	-4590
▁compar	-4591
▁native	-4592
▁herself	-4593
pe	-4594
▁extra	-4595
▁formation	-4596
▁faced	-4597
▁trying	-4598
▁expedition	-4599
etts	-4600
▁Hay	-4601
▁Ram	-4602
▁mis	-4603
oln	-4604
▁Bart	-4605
▁brown	-4606
gu	-4607
▁Sa	-4608
▁rival	-4609
▁Brook	-4610
aby	-4611
ufact	-4612
▁supply	-4613
▁manufact	-4614
▁university	-4615
▁here	-4616
▁adopted	-4617
▁surpris	-4618
▁draft	-4619
▁plants	-4620
▁hall	-4621
▁comes	-4622
izes	-4623
▁escape	-4624
▁machine	-4625
▁possibly	-4626
▁sets	-4627
▁swe	-4628
ić	-4629
▁chose	-4630
▁Eastern	-4631
▁crowd	-4632
acement	-4633
▁website	-4634
▁Reception	-4635
awa	-4636
▁Public	-4637
▁spirit	-4638
▁acquired	-4639
▁sle	-4640
stone	-4641
antine	-4642
▁advanced	-4643
▁governor	-4644
▁touchdown	-4645
▁historical	-4646
▁agg	-4647
▁End	-4648
isters	-4649
itable	-4650
cer	-4651
▁53	-4652
ucky	-4653
▁bey	-4654
▁split	-4655
▁load	-4656
▁management	-4657
▁Dev	-4658
▁Burn	-4659
▁platform	-4660
▁fair	-4661
▁capacity	-4662
▁−	-4663
ental	-4664
▁benef	-4665
▁genus	-4666
▁Castle	-4667
▁challeng	-4668
▁abandoned	-4669
▁Marsh	-4670
▁56	-4671
▁lives	-4672
▁beyond	-4673
rect	-4674
▁1939	-4675
▁66	-4676
▁Tro	-4677
▁weak	-4678
▁System	-4679
▁inh	-4680
apers	-4681
▁consecutive	-4682
▁Sk	-4683
resh	-4684
▁Each	-4685
▁Liber	-4686
▁defin	-4687
▁Wars	-4688
▁earth	-4689
▁Die	-4690
▁twice	-4691
▁strike	-4692
▁opposed	-4693
▁incident	-4694
eller	-4695
▁Linc	-4696
▁Ocean	-4697
▁Jon	-4698
▁Mike	-4699
▁sports	-4700
▁paralle	-4701
mann	-4702
▁Ty	-4703
▁simply	-4704
▁Bru	-4705
▁newly	-4706
uct	-4707
▁dyn	-4708
apore	-4709
▁kick	-4710
▁growing	-4711
▁nuclear	-4712
▁Fam	-4713
▁Pen	-4714
fully	-4715
▁Of	-4716
▁bud	-4717
▁row	-4718
▁97	-4719
▁Les	-4720
▁Singapore	-4721
▁Far	-4722
▁entr	-4723
utation	-4724
▁177	-4725
onent	-4726
▁Inst	-4727
▁Swed	-4728
▁Elect	-4729
▁spring	-4730
▁Lincoln	-4731
▁centuries	-4732
▁receive	-4733
▁Som	-4734
▁horses	-4735
▁Eliz	-4736
▁Further	-4737
▁solo	-4738
▁narrow	-4739
▁silver	-4740
▁trees	-4741
▁enter	-4742
▁Allied	-4743
▁perman	-4744
▁adapt	-4745
▁normal	-4746
▁HMS	-4747
▁spect	-4748
▁regarded	-4749
▁producers	-4750
▁CD	-4751
▁1984	-4752
▁extend	-4753
▁mob	-4754
▁prote	-4755
▁straight	-4756
born	-4757
▁1985	-4758
▁philos	-4759
▁district	-4760
fort	-4761
▁Ros	-4762
▁expansion	-4763
▁creating	-4764
▁extensive	-4765
imens	-4766
▁retired	-4767
haps	-4768
▁Lew	-4769
▁ends	-4770
▁nothing	-4771
▁authorities	-4772
▁Hum	-4773
▁Line	-4774
▁creation	-4775
TC	-4776
▁basis	-4777
▁deliver	-4778
▁Government	-4779
istan	-4780
▁negative	-4781
edd	-4782
zer	-4783
▁mile	-4784
▁authority	-4785
▁illust	-4786
▁ancient	-4787
▁contain	-4788
▁Ca	-4789
▁billion	-4790
▁experiment	-4791
▁Vol	-4792
▁moment	-4793
▁believe	-4794
▁briefly	-4795
▁torpedo	-4796
▁Che	-4797
▁dog	-4798
▁Home	-4799
▁rejected	-4800
▁sail	-4801
▁contact	-4802
▁achieved	-4803
▁describes	-4804
▁Also	-4805
▁heard	-4806
▁Studios	-4807
▁newspaper	-4808
ico	-4809
▁glob	-4810
▁Addition	-4811
▁Ret	-4812
▁opin	-4813
▁wounded	-4814
▁commonly	-4815
mosp	-4816
ancing	-4817
▁Jun	-4818
aylor	-4819
▁Men	-4820
▁master	-4821
AS	-4822
imal	-4823
▁Gi	-4824
aire	-4825
▁eth	-4826
▁granted	-4827
▁speech	-4828
▁mountain	-4829
▁Albert	-4830
▁Olympics	-4831
▁organized	-4832
tar	-4833
▁IS	-4834
▁unf	-4835
▁interchange	-4836
▁Fre	-4837
▁prin	-4838
▁Meanwhile	-4839
▁62	-4840
▁fan	-4841
verse	-4842
▁ideas	-4843
▁Senate	-4844
▁Ep	-4845
▁advant	-4846
▁height	-4847
▁observ	-4848
▁Ul	-4849
▁drive	-4850
▁workers	-4851
▁necessary	-4852
▁ur	-4853
▁failure	-4854
▁happen	-4855
▁intellig	-4856
▁wick	-4857
▁awards	-4858
appy	-4859
▁appl	-4860
▁roles	-4861
▁Common	-4862
▁launch	-4863
▁Ron	-4864
▁guard	-4865
▁fellow	-4866
▁bal	-4867
▁Pers	-4868
▁lands	-4869
▁Institute	-4870
pass	-4871
▁pet	-4872
▁data	-4873
▁famous	-4874
▁convers	-4875
▁bass	-4876
▁color	-4877
▁rear	-4878
▁column	-4879
▁lem	-4880
ockey	-4881
orter	-4882
▁Daniel	-4883
▁severe	-4884
▁crossing	-4885
▁administration	-4886
▁57	-4887
aved	-4888
rain	-4889
▁eye	-4890
▁NH	-4891
▁What	-4892
lement	-4893
▁graph	-4894
ashion	-4895
▁Coast	-4896
▁Sound	-4897
▁Cambridge	-4898
oted	-4899
▁Cub	-4900
▁Barb	-4901
▁roads	-4902
▁headquarters	-4903
hens	-4904
▁Han	-4905
▁elev	-4906
▁Madonna	-4907
▁defined	-4908
▁literature	-4909
▁Mov	-4910
abeth	-4911
outs	-4912
▁opposition	-4913
▁Prot	-4914
▁roof	-4915
▁applic	-4916
▁800	-4917
orship	-4918
▁filming	-4919
▁drop	-4920
▁letters	-4921
▁armed	-4922
▁unique	-4923
▁citizens	-4924
rog	-4925
gend	-4926
▁chair	-4927
stitution	-4928
pton	-4929
▁Due	-4930
▁Wat	-4931
▁pros	-4932
▁Among	-4933
▁learn	-4934
▁Production	-4935
▁Polish	-4936
▁suggests	-4937
▁Broad	-4938
▁broken	-4939
mit	-4940
▁fat	-4941
▁comedy	-4942
▁bat	-4943
▁evac	-4944
ola	-4945
lusion	-4946
▁deploy	-4947
eed	-4948
▁delay	-4949
▁choice	-4950
rael	-4951
▁Hon	-4952
▁chor	-4953
▁dismiss	-4954
▁families	-4955
ifications	-4956
▁twelve	-4957
▁Bey	-4958
▁flooding	-4959
isers	-4960
▁strik	-4961
▁Nintend	-4962
▁council	-4963
▁personnel	-4964
▁Ray	-4965
▁criticism	-4966
▁purpose	-4967
▁recently	-4968
ocks	-4969
▁Are	-4970
▁Germ	-4971
▁Nintendo	-4972
osh	-4973
▁Key	-4974
▁Liver	-4975
▁Steve	-4976
isf	-4977
▁99	-4978
▁Rome	-4979
▁gives	-4980
▁prompt	-4981
▁soft	-4982
ographer	-4983
▁improved	-4984
▁sport	-4985
ias	-4986
▁psych	-4987
▁budget	-4988
aith	-4989
▁Gulf	-4990
▁Revolution	-4991
▁containing	-4992
▁tail	-4993
▁Press	-4994
▁casual	-4995
▁#	-4996
▁pack	-4997
▁prefer	-4998
▁Po	-4999
▁Cat	-5000
▁arms	-5001
▁Jewish	-5002
▁cricket	-5003
ocated	-5004
uccess	-5005
iot	-5006
▁tim	-5007
akers	-5008
▁dial	-5009
▁vari	-5010
atures	-5011
▁actors	-5012
▁transform	-5013
▁MD	-5014
▁arrival	-5015
▁effective	-5016
▁Development	-5017
abb	-5018
▁SR	-5019
▁120	-5020
▁calls	-5021
▁decre	-5022
▁commissioned	-5023
▁Never	-5024
▁places	-5025
▁Festival	-5026
▁bott	-5027
▁Board	-5028
▁dedicated	-5029
▁bodies	-5030
▁seventh	-5031
▁eg	-5032
▁steam	-5033
ala	-5034
▁imag	-5035
▁titles	-5036
isco	-5037
▁1964	-5038
▁Water	-5039
▁Israel	-5040
anda	-5041
arts	-5042
▁branch	-5043
▁household	-5044
gar	-5045
▁Clark	-5046
▁Andrew	-5047
▁Fantasy	-5048
▁entirely	-5049
cript	-5050
enger	-5051
▁firm	-5052
▁76	-5053
▁Tech	-5054
▁comic	-5055
▁Philipp	-5056
▁facilities	-5057
▁Lar	-5058
▁1968	-5059
▁excl	-5060
▁Brian	-5061
▁drama	-5062
▁caught	-5063
▁perfect	-5064
▁controlled	-5065
ini	-5066
▁types	-5067
▁cultural	-5068
itled	-5069
▁table	-5070
▁Sus	-5071
▁Spain	-5072
▁repeated	-5073
▁unp	-5074
▁Even	-5075
erc	-5076
▁poll	-5077
▁existing	-5078
uting	-5079
▁Sund	-5080
▁determined	-5081
▁successfully	-5082
uate	-5083
estic	-5084
▁didn	-5085
▁Batman	-5086
▁fought	-5087
▁conference	-5088
▁Conn	-5089
▁gameplay	-5090
ading	-5091
▁Night	-5092
▁article	-5093
▁looking	-5094
▁Secretary	-5095
▁mentioned	-5096
▁industrial	-5097
▁Joe	-5098
▁turns	-5099
▁athlet	-5100
▁recognized	-5101
▁Lind	-5102
▁filmed	-5103
▁baseball	-5104
▁expanded	-5105
▁Conference	-5106
▁Taylor	-5107
▁themes	-5108
▁Railway	-5109
▁Liverpool	-5110
illing	-5111
iments	-5112
▁reflect	-5113
set	-5114
▁Earl	-5115
▁islands	-5116
▁Scottish	-5117
▁scheduled	-5118
▁1982	-5119
▁belong	-5120
▁interact	-5121
ordan	-5122
▁1967	-5123
▁seat	-5124
▁evolution	-5125
eler	-5126
illy	-5127
▁rid	-5128
avalry	-5129
▁Prov	-5130
▁Special	-5131
▁contributed	-5132
▁depth	-5133
▁Os	-5134
▁locations	-5135
▁Lieutenant	-5136
▁fix	-5137
▁Six	-5138
▁1971	-5139
▁Lady	-5140
▁mist	-5141
orough	-5142
▁trail	-5143
uls	-5144
▁Georg	-5145
▁security	-5146
adelph	-5147
▁worth	-5148
▁Mid	-5149
ura	-5150
ients	-5151
▁Shak	-5152
rich	-5153
▁Bad	-5154
▁pitch	-5155
▁shark	-5156
▁museum	-5157
▁fit	-5158
▁Braz	-5159
▁Turn	-5160
▁atmosp	-5161
▁hol	-5162
iences	-5163
▁Islands	-5164
▁parallel	-5165
agan	-5166
▁Att	-5167
opher	-5168
▁acad	-5169
▁gross	-5170
▁Summer	-5171
▁Walter	-5172
▁Philadelph	-5173
▁merch	-5174
▁advent	-5175
▁Pot	-5176
▁thing	-5177
▁singing	-5178
▁Republican	-5179
war	-5180
▁96	-5181
onder	-5182
ressive	-5183
▁Columbia	-5184
▁ceremony	-5185
▁Only	-5186
▁Carey	-5187
▁landing	-5188
án	-5189
▁Child	-5190
▁extrem	-5191
▁volume	-5192
▁closely	-5193
igg	-5194
unte	-5195
▁178	-5196
▁Mir	-5197
▁analysis	-5198
▁leadership	-5199
▁boats	-5200
▁younger	-5201
uses	-5202
▁towns	-5203
▁resemb	-5204
▁Pit	-5205
▁Asia	-5206
▁labor	-5207
eld	-5208
ulate	-5209
▁provides	-5210
▁Colonel	-5211
▁accompanied	-5212
inity	-5213
respond	-5214
▁visual	-5215
▁cold	-5216
▁mouth	-5217
▁Emperor	-5218
igr	-5219
onym	-5220
▁harm	-5221
▁standing	-5222
isa	-5223
▁Fair	-5224
▁Alexander	-5225
▁deck	-5226
▁liber	-5227
▁Lo	-5228
▁SS	-5229
umes	-5230
▁aim	-5231
▁fish	-5232
iration	-5233
▁street	-5234
▁store	-5235
▁Review	-5236
▁advert	-5237
▁survey	-5238
▁Philadelphia	-5239
▁72	-5240
▁Elizabeth	-5241
ora	-5242
ef	-5243
eline	-5244
▁viewed	-5245
add	-5246
iner	-5247
▁battalion	-5248
▁motion	-5249
▁withdraw	-5250
▁dry	-5251
▁upgr	-5252
▁vote	-5253
▁teach	-5254
▁offensive	-5255
▁Anderson	-5256
▁Rel	-5257
▁secondary	-5258
kins	-5259
▁core	-5260
agement	-5261
▁losses	-5262
▁throw	-5263
▁developing	-5264
▁Ash	-5265
formula	-5266
▁negoti	-5267
laim	-5268
▁finds	-5269
▁knowledge	-5270
▁Indones	-5271
▁regions	-5272
▁scientific	-5273
ava	-5274
▁Bas	-5275
▁technology	-5276
acter	-5277
water	-5278
▁1946	-5279
▁Marc	-5280
▁sites	-5281
▁economy	-5282
icial	-5283
▁finish	-5284
▁WW	-5285
▁Corn	-5286
▁quite	-5287
▁powers	-5288
▁kilometres	-5289
▁1969	-5290
▁1914	-5291
▁Tenn	-5292
▁unus	-5293
▁piano	-5294
rif	-5295
▁why	-5296
▁Once	-5297
▁charts	-5298
stream	-5299
▁67	-5300
▁tree	-5301
▁1973	-5302
▁1974	-5303
▁1975	-5304
▁Ohio	-5305
▁Kr	-5306
ishes	-5307
thes	-5308
▁Alab	-5309
▁rise	-5310
▁sand	-5311
racted	-5312
▁belief	-5313
▁purchased	-5314
▁NBA	-5315
ingly	-5316
▁1972	-5317
▁Radio	-5318
▁beaut	-5319
▁correspond	-5320
▁59	-5321
▁1965	-5322
▁simple	-5323
ults	-5324
igation	-5325
▁animal	-5326
▁Germans	-5327
▁engaged	-5328
▁fashion	-5329
▁supporting	-5330
▁Alabama	-5331
▁providing	-5332
▁Vi	-5333
▁sort	-5334
▁urban	-5335
▁Indust	-5336
▁experienced	-5337
▁resour	-5338
▁adult	-5339
▁protected	-5340
▁receiving	-5341
▁performing	-5342
▁Nel	-5343
▁diam	-5344
▁steel	-5345
▁connected	-5346
▁61	-5347
more	-5348
▁Cur	-5349
▁eyes	-5350
▁shall	-5351
Station	-5352
▁Rol	-5353
▁Greg	-5354
▁franch	-5355
restling	-5356
▁Between	-5357
▁renamed	-5358
▁perhaps	-5359
▁defensive	-5360
amin	-5361
▁aid	-5362
▁elimin	-5363
▁PlayStation	-5364
▁Norman	-5365
▁focused	-5366
▁roughly	-5367
▁advantage	-5368
▁currently	-5369
sey	-5370
▁Ur	-5371
room	-5372
▁sac	-5373
▁1983	-5374
▁adap	-5375
▁nick	-5376
ctions	-5377
▁committee	-5378
▁views	-5379
▁significantly	-5380
ologist	-5381
▁journey	-5382
▁infantry	-5383
▁instruct	-5384
▁moder	-5385
▁occupied	-5386
omic	-5387
▁orb	-5388
achus	-5389
▁1948	-5390
▁Office	-5391
▁southeast	-5392
iday	-5393
▁Tam	-5394
▁enl	-5395
▁poem	-5396
▁Prime	-5397
osl	-5398
▁Bank	-5399
▁tank	-5400
▁Dream	-5401
▁Rhodes	-5402
▁compris	-5403
asty	-5404
▁Band	-5405
▁Bern	-5406
etball	-5407
▁fresh	-5408
▁distingu	-5409
ev	-5410
▁94	-5411
▁1979	-5412
▁publication	-5413
uzz	-5414
▁UN	-5415
imet	-5416
burgh	-5417
▁Sand	-5418
▁defence	-5419
▁Arg	-5420
▁ton	-5421
▁wa	-5422
▁drew	-5423
▁drawn	-5424
▁selection	-5425
▁goes	-5426
▁shared	-5427
▁structures	-5428
▁semi	-5429
▁Jordan	-5430
▁Person	-5431
▁hair	-5432
▁escort	-5433
▁1918	-5434
▁isol	-5435
▁intensity	-5436
ano	-5437
rons	-5438
▁som	-5439
▁wave	-5440
ographic	-5441
▁consists	-5442
▁agricult	-5443
inth	-5444
▁hyp	-5445
▁hired	-5446
▁Walk	-5447
▁Brazil	-5448
▁People	-5449
▁holding	-5450
▁mounted	-5451
▁projects	-5452
▁gain	-5453
▁tall	-5454
▁notable	-5455
▁vac	-5456
essed	-5457
▁Golden	-5458
GN	-5459
▁250	-5460
▁Ven	-5461
▁mic	-5462
osaurus	-5463
▁suppor	-5464
ifically	-5465
▁resident	-5466
box	-5467
▁yellow	-5468
▁converted	-5469
▁73	-5470
vest	-5471
▁ven	-5472
▁1966	-5473
▁Kennedy	-5474
▁Lewis	-5475
▁Spring	-5476
standing	-5477
AT	-5478
ima	-5479
▁prepared	-5480
▁auth	-5481
ceived	-5482
▁computer	-5483
▁declined	-5484
▁lb	-5485
ophy	-5486
▁Mot	-5487
▁actress	-5488
▁Massachus	-5489
▁temperature	-5490
▁try	-5491
▁Russia	-5492
▁Massachusetts	-5493
▁Jr	-5494
ipl	-5495
▁Kentucky	-5496
▁nest	-5497
▁Hitler	-5498
▁freeway	-5499
▁nob	-5500
▁rac	-5501
▁Base	-5502
▁opportunity	-5503
▁roll	-5504
izations	-5505
▁introduction	-5506
▁Inc	-5507
▁Ball	-5508
▁rules	-5509
▁anything	-5510
▁1976	-5511
▁cars	-5512
▁Square	-5513
▁allows	-5514
▁settlement	-5515
wise	-5516
▁Mas	-5517
▁shape	-5518
▁74	-5519
▁IV	-5520
friend	-5521
▁agent	-5522
▁earliest	-5523
▁Bul	-5524
▁fict	-5525
▁equal	-5526
▁protect	-5527
▁Maryland	-5528
▁About	-5529
▁wealth	-5530
amm	-5531
edom	-5532
▁Rod	-5533
▁160	-5534
▁Kim	-5535
break	-5536
▁Vietnam	-5537
▁58	-5538
▁alle	-5539
▁enjoyed	-5540
▁Hollywood	-5541
▁protection	-5542
FL	-5543
ordin	-5544
▁rapidly	-5545
▁session	-5546
▁x	-5547
▁Cy	-5548
eland	-5549
▁Down	-5550
▁shel	-5551
▁assault	-5552
iy	-5553
▁Hun	-5554
▁1981	-5555
▁calc	-5556
emies	-5557
▁substant	-5558
reets	-5559
▁1956	-5560
▁gard	-5561
▁Color	-5562
▁Norway	-5563
▁concer	-5564
▁relief	-5565
gn	-5566
eral	-5567
▁chance	-5568
▁proceed	-5569
▁milit	-5570
▁IGN	-5571
▁rend	-5572
▁Order	-5573
▁description	-5574
osa	-5575
yer	-5576
▁Var	-5577
▁cool	-5578
▁Jean	-5579
▁descend	-5580
▁reasons	-5581
▁items	-5582
▁learned	-5583
▁63	-5584
▁Od	-5585
▁Ve	-5586
heim	-5587
▁limit	-5588
▁adding	-5589
▁stadium	-5590
ato	-5591
otic	-5592
▁online	-5593
▁safety	-5594
▁Pak	-5595
▁save	-5596
▁Plan	-5597
▁rebu	-5598
▁occas	-5599
▁headed	-5600
▁submar	-5601
▁designs	-5602
▁unsuccess	-5603
▁distribution	-5604
bound	-5605
▁Ross	-5606
▁motor	-5607
▁undert	-5608
▁witness	-5609
▁approved	-5610
▁increasingly	-5611
▁Bos	-5612
▁Princ	-5613
▁exchange	-5614
▁cited	-5615
▁Engine	-5616
▁Jersey	-5617
▁popularity	-5618
gers	-5619
roll	-5620
▁mart	-5621
▁shaped	-5622
▁Airport	-5623
▁constitution	-5624
eless	-5625
rence	-5626
▁exact	-5627
▁strengt	-5628
▁Francisco	-5629
▁southwest	-5630
▁Sn	-5631
▁1947	-5632
▁acres	-5633
▁700	-5634
▁1917	-5635
▁Women	-5636
RA	-5637
han	-5638
ewhere	-5639
▁catch	-5640
ications	-5641
▁playoff	-5642
▁succeeded	-5643
▁daily	-5644
▁squad	-5645
▁existence	-5646
▁regarding	-5647
onc	-5648
▁rated	-5649
ivalent	-5650
▁details	-5651
▁Ra	-5652
state	-5653
▁depend	-5654
▁symbol	-5655
▁identity	-5656
olt	-5657
iform	-5658
psons	-5659
inking	-5660
iful	-5661
▁Simpsons	-5662
▁Mul	-5663
▁Chap	-5664
▁Stew	-5665
▁edge	-5666
▁hits	-5667
▁overl	-5668
▁programs	-5669
iana	-5670
▁missing	-5671
▁Syd	-5672
▁convoy	-5673
▁68	-5674
▁Main	-5675
▁credited	-5676
▁religion	-5677
aki	-5678
come	-5679
▁175	-5680
▁buried	-5681
oir	-5682
▁nor	-5683
▁Murray	-5684
▁humans	-5685
▁entitled	-5686
▁Pu	-5687
▁retire	-5688
▁breeding	-5689
▁aw	-5690
▁MTV	-5691
▁von	-5692
▁exerc	-5693
▁improve	-5694
iller	-5695
▁Open	-5696
▁reputation	-5697
▁hydro	-5698
▁decade	-5699
▁kingdom	-5700
▁Mos	-5701
▁neut	-5702
▁genre	-5703
theless	-5704
▁injured	-5705
ropri	-5706
▁Robin	-5707
▁Cape	-5708
▁Hend	-5709
▁Cre	-5710
▁1953	-5711
▁knew	-5712
▁emerg	-5713
▁medal	-5714
▁responded	-5715
icks	-5716
▁Shortly	-5717
worth	-5718
▁planning	-5719
▁indicated	-5720
▁Bowl	-5721
▁price	-5722
▁stages	-5723
▁storyline	-5724
▁Mah	-5725
▁survived	-5726
▁trip	-5727
▁Nether	-5728
▁82	-5729
othes	-5730
▁Jane	-5731
▁Station	-5732
▁Imperial	-5733
▁scholars	-5734
alog	-5735
▁lic	-5736
▁note	-5737
ba	-5738
gal	-5739
▁gradually	-5740
▁Let	-5741
▁virt	-5742
▁intersection	-5743
apes	-5744
veland	-5745
▁producing	-5746
▁meters	-5747
▁Command	-5748
▁orchest	-5749
▁entrance	-5750
ua	-5751
▁81	-5752
aret	-5753
raham	-5754
▁fear	-5755
▁Arthur	-5756
▁campus	-5757
FA	-5758
▁routes	-5759
▁engines	-5760
▁shooting	-5761
▁approached	-5762
▁alternative	-5763
▁Songs	-5764
▁Loc	-5765
▁Indiana	-5766
▁violence	-5767
▁composition	-5768
▁Kong	-5769
▁cart	-5770
▁exclus	-5771
▁decades	-5772
▁watched	-5773
atus	-5774
inger	-5775
▁Prof	-5776
▁writes	-5777
ii	-5778
▁Age	-5779
▁ways	-5780
▁theat	-5781
▁Feder	-5782
agonist	-5783
▁applied	-5784
▁98	-5785
▁1916	-5786
▁easily	-5787
▁getting	-5788
oard	-5789
▁pup	-5790
▁69	-5791
▁Well	-5792
▁joint	-5793
▁assistant	-5794
▁importance	-5795
zy	-5796
▁71	-5797
▁lov	-5798
▁Fire	-5799
▁1958	-5800
▁males	-5801
rin	-5802
▁Ten	-5803
itors	-5804
▁1962	-5805
▁shut	-5806
▁Point	-5807
▁volcan	-5808
▁digital	-5809
met	-5810
▁Pict	-5811
▁lasted	-5812
▁Theatre	-5813
▁consequ	-5814
▁collected	-5815
▁Dougl	-5816
▁showing	-5817
▁Jes	-5818
▁hip	-5819
▁Init	-5820
▁crime	-5821
▁employed	-5822
▁landfall	-5823
▁91	-5824
▁gall	-5825
engers	-5826
▁Cleveland	-5827
ensus	-5828
▁Video	-5829
▁select	-5830
▁starts	-5831
agues	-5832
ieval	-5833
ilding	-5834
eke	-5835
▁87	-5836
▁Hawai	-5837
▁seems	-5838
▁Supreme	-5839
▁casualties	-5840
▁Gib	-5841
▁Row	-5842
▁acid	-5843
unicip	-5844
▁appeal	-5845
▁77	-5846
▁Ari	-5847
▁ign	-5848
▁Gord	-5849
istered	-5850
▁brothers	-5851
▁products	-5852
▁78	-5853
▁arranged	-5854
ione	-5855
▁pul	-5856
▁1915	-5857
▁tell	-5858
poration	-5859
ushing	-5860
▁Independ	-5861
ns	-5862
aka	-5863
▁Sel	-5864
leton	-5865
▁filled	-5866
▁rob	-5867
▁Simon	-5868
▁teacher	-5869
▁93	-5870
iege	-5871
▁tra	-5872
▁Balt	-5873
iminal	-5874
issance	-5875
▁models	-5876
▁Project	-5877
▁weakened	-5878
rix	-5879
▁Run	-5880
▁Serb	-5881
▁Sydney	-5882
▁turning	-5883
▁maintain	-5884
▁sections	-5885
▁Li	-5886
▁Naval	-5887
▁bought	-5888
▁custom	-5889
▁battery	-5890
▁cells	-5891
western	-5892
ador	-5893
▁Simp	-5894
▁flat	-5895
▁knots	-5896
▁estate	-5897
▁finding	-5898
▁tact	-5899
mitted	-5900
▁aware	-5901
▁enemies	-5902
▁opinion	-5903
▁Av	-5904
▁unl	-5905
▁1936	-5906
▁Ban	-5907
▁1955	-5908
▁consum	-5909
iger	-5910
▁sun	-5911
▁mode	-5912
▁Bruce	-5913
▁Power	-5914
▁entry	-5915
▁Doctor	-5916
▁preced	-5917
▁crossed	-5918
▁females	-5919
▁stopped	-5920
▁reaction	-5921
▁FA	-5922
▁UTC	-5923
▁Simpson	-5924
▁glass	-5925
▁domestic	-5926
▁fictional	-5927
BN	-5928
oli	-5929
▁Ast	-5930
▁1938	-5931
▁frag	-5932
▁evening	-5933
▁mut	-5934
▁Circ	-5935
▁franchise	-5936
▁sustained	-5937
▁Low	-5938
▁deaths	-5939
▁arc	-5940
▁youth	-5941
▁Kel	-5942
▁Anth	-5943
▁offers	-5944
rets	-5945
yles	-5946
▁Ken	-5947
tical	-5948
▁1963	-5949
▁myth	-5950
▁heads	-5951
▁operating	-5952
▁remainder	-5953
▁sufficient	-5954
▁AD	-5955
▁Kir	-5956
▁Lenn	-5957
ignment	-5958
▁aspects	-5959
▁extremely	-5960
▁cab	-5961
▁typical	-5962
▁Arts	-5963
arp	-5964
▁bed	-5965
ashed	-5966
uration	-5967
iro	-5968
osis	-5969
ician	-5970
ropol	-5971
▁dated	-5972
▁Who	-5973
insula	-5974
ivered	-5975
▁objects	-5976
BS	-5977
wall	-5978
▁1978	-5979
▁Grant	-5980
▁patrol	-5981
▁supplies	-5982
▁Naz	-5983
▁Fame	-5984
▁secure	-5985
▁Instead	-5986
ilton	-5987
▁Prem	-5988
▁impl	-5989
▁Singles	-5990
ranean	-5991
▁posted	-5992
▁adapted	-5993
ipe	-5994
▁Nic	-5995
▁convin	-5996
▁resistance	-5997
▁1954	-5998
▁oldest	-5999
time	-6000
▁pig	-6001
chers	-6002
▁recommended	-6003
eman	-6004
▁Abb	-6005
▁winner	-6006
▁Mountain	-6007
▁challenge	-6008
▁promotion	-6009
oma	-6010
▁terminus	-6011
iling	-6012
itage	-6013
▁Daily	-6014
▁vehicle	-6015
▁delivered	-6016
▁ty	-6017
math	-6018
▁Edu	-6019
aware	-6020
▁Gram	-6021
▁Hart	-6022
espread	-6023
vements	-6024
▁carrying	-6025
▁Gen	-6026
▁conqu	-6027
▁reduce	-6028
▁download	-6029
rell	-6030
▁Rem	-6031
▁classes	-6032
▁reserve	-6033
phoon	-6034
▁foss	-6035
▁proposal	-6036
▁threatened	-6037
inois	-6038
▁soul	-6039
hat	-6040
▁ones	-6041
▁message	-6042
▁alt	-6043
▁circum	-6044
▁driving	-6045
▁Colorado	-6046
▁painting	-6047
▁Andy	-6048
▁faith	-6049
▁paint	-6050
▁hosted	-6051
▁permanent	-6052
▁Maria	-6053
▁champion	-6054
eper	-6055
ixon	-6056
▁1919	-6057
▁1961	-6058
▁Leon	-6059
▁Nick	-6060
▁Five	-6061
▁Pier	-6062
entially	-6063
▁department	-6064
uan	-6065
▁Bol	-6066
athan	-6067
▁Nelson	-6068
▁overse	-6069
▁combination	-6070
ads	-6071
▁1977	-6072
▁connection	-6073
▁vent	-6074
▁tanks	-6075
▁income	-6076
▁noting	-6077
▁occurs	-6078
▁rural	-6079
▁Sunday	-6080
▁studied	-6081
▁79	-6082
▁Howard	-6083
▁charged	-6084
▁retained	-6085
▁emp	-6086
ulpt	-6087
mouth	-6088
▁parties	-6089
▁Confeder	-6090
▁Memorial	-6091
iva	-6092
ubb	-6093
▁CE	-6094
idden	-6095
idges	-6096
▁ISBN	-6097
▁funds	-6098
▁brigade	-6099
▁Illinois	-6100
▁rhy	-6101
▁principal	-6102
▁equivalent	-6103
iques	-6104
▁demand	-6105
▁Mexican	-6106
▁politics	-6107
hol	-6108
▁tal	-6109
▁sell	-6110
▁wars	-6111
▁stret	-6112
▁arrested	-6113
lyn	-6114
▁consisting	-6115
▁Ut	-6116
▁fly	-6117
▁Tower	-6118
▁internal	-6119
Ar	-6120
▁86	-6121
▁specifically	-6122
reck	-6123
erted	-6124
▁stayed	-6125
▁Additionally	-6126
heastern	-6127
▁install	-6128
▁invited	-6129
▁considerable	-6130
▁capable	-6131
▁Democratic	-6132
▁parliament	-6133
▁Douglas	-6134
▁everything	-6135
▁ago	-6136
▁acts	-6137
ervative	-6138
▁1959	-6139
▁swim	-6140
▁eighth	-6141
▁obtained	-6142
apped	-6143
ommod	-6144
▁vary	-6145
ira	-6146
onia	-6147
▁Byz	-6148
▁debate	-6149
▁replace	-6150
▁certified	-6151
▁statement	-6152
▁card	-6153
▁duty	-6154
▁cloud	-6155
▁dates	-6156
▁spons	-6157
▁Research	-6158
PA	-6159
▁mort	-6160
▁address	-6161
▁Director	-6162
▁concerns	-6163
▁Throughout	-6164
otype	-6165
▁Assembly	-6166
▁prisoners	-6167
aked	-6168
▁Cop	-6169
▁1952	-6170
▁integr	-6171
▁Nations	-6172
▁assumed	-6173
▁entering	-6174
▁widespread	-6175
▁trust	-6176
▁bottom	-6177
▁Critical	-6178
▁supposed	-6179
▁implement	-6180
▁Hou	-6181
▁Lab	-6182
▁Forest	-6183
▁actual	-6184
▁corner	-6185
▁stream	-6186
▁occasionally	-6187
▁130	-6188
▁apart	-6189
▁Gilbert	-6190
▁×	-6191
ender	-6192
▁basic	-6193
▁causes	-6194
▁settled	-6195
▁Military	-6196
▁crown	-6197
▁opera	-6198
▁literary	-6199
wick	-6200
oslav	-6201
▁Georgia	-6202
▁coastal	-6203
▁songwrit	-6204
ais	-6205
pet	-6206
▁88	-6207
ader	-6208
▁hang	-6209
▁Gordon	-6210
▁extension	-6211
▁involving	-6212
▁attributed	-6213
▁charges	-6214
▁Jan	-6215
▁sam	-6216
▁volunte	-6217
osite	-6218
▁Plot	-6219
▁door	-6220
▁decor	-6221
▁camera	-6222
▁derived	-6223
▁describing	-6224
bar	-6225
▁Mu	-6226
▁cinem	-6227
ructure	-6228
▁duties	-6229
▁classic	-6230
▁intelligence	-6231
put	-6232
▁ec	-6233
▁110	-6234
▁page	-6235
▁torn	-6236
▁Armen	-6237
▁references	-6238
ivan	-6239
▁Imp	-6240
▁NHL	-6241
ilation	-6242
▁vessels	-6243
▁installed	-6244
▁classification	-6245
▁92	-6246
▁et	-6247
▁outer	-6248
▁Id	-6249
adow	-6250
▁176	-6251
▁downtown	-6252
▁recalled	-6253
hus	-6254
▁manner	-6255
▁candidate	-6256
▁possibility	-6257
▁Ka	-6258
▁Om	-6259
▁PA	-6260
ylan	-6261
▁Musl	-6262
▁Magazine	-6263
▁admitted	-6264
iterranean	-6265
▁1935	-6266
▁Palace	-6267
▁serves	-6268
▁composer	-6269
▁purchase	-6270
▁Transport	-6271
▁populations	-6272
▁Dylan	-6273
▁Media	-6274
▁strateg	-6275
hetic	-6276
▁Pass	-6277
▁Science	-6278
▁Mediterranean	-6279
▁Jay	-6280
achel	-6281
▁1957	-6282
▁Ryan	-6283
▁prey	-6284
▁Stand	-6285
▁divers	-6286
▁province	-6287
▁assistance	-6288
▁revolution	-6289
▁technical	-6290
▁Der	-6291
▁Kevin	-6292
▁solid	-6293
▁recognition	-6294
wen	-6295
▁Nap	-6296
▁Iron	-6297
▁Lisa	-6298
▁appoint	-6299
olished	-6300
▁Ob	-6301
encies	-6302
▁Disney	-6303
▁Within	-6304
▁global	-6305
▁equipped	-6306
▁discovery	-6307
▁portrayed	-6308
bro	-6309
hedral	-6310
▁Weekly	-6311
▁disturb	-6312
▁reading	-6313
▁sons	-6314
sole	-6315
▁dens	-6316
▁Norwe	-6317
▁Space	-6318
▁correct	-6319
▁thousands	-6320
zen	-6321
▁Alf	-6322
▁Hug	-6323
▁1937	-6324
▁rich	-6325
▁ruled	-6326
▁stock	-6327
rations	-6328
iversary	-6329
▁Matthew	-6330
▁promote	-6331
▁bask	-6332
▁begun	-6333
▁remix	-6334
▁voted	-6335
▁Stadium	-6336
▁McK	-6337
▁Moon	-6338
▁Cult	-6339
▁wooden	-6340
▁someone	-6341
ella	-6342
▁Bal	-6343
▁Vill	-6344
▁sole	-6345
▁coins	-6346
▁sculpt	-6347
▁Tar	-6348
▁1951	-6349
▁autom	-6350
▁phase	-6351
▁fields	-6352
rec	-6353
hered	-6354
▁Around	-6355
▁attached	-6356
▁Ottoman	-6357
▁van	-6358
▁Beach	-6359
▁Recording	-6360
▁committed	-6361
va	-6362
▁Cra	-6363
▁Roc	-6364
▁hope	-6365
▁denied	-6366
▁reality	-6367
▁highlight	-6368
anny	-6369
▁lap	-6370
orney	-6371
▁Coll	-6372
▁images	-6373
▁interpret	-6374
▁investigation	-6375
erto	-6376
rett	-6377
▁Phill	-6378
▁Real	-6379
▁Tony	-6380
▁jump	-6381
▁snow	-6382
▁zone	-6383
▁Mario	-6384
▁Staff	-6385
agle	-6386
▁Roy	-6387
▁Eric	-6388
▁Trib	-6389
▁clean	-6390
▁Bishop	-6391
▁regional	-6392
▁accur	-6393
▁climb	-6394
▁commanded	-6395
BI	-6396
olph	-6397
▁Dig	-6398
▁cry	-6399
▁Prog	-6400
▁tick	-6401
▁nav	-6402
▁Alan	-6403
▁Anna	-6404
▁shop	-6405
urches	-6406
▁sailed	-6407
▁Similar	-6408
▁dream	-6409
▁speak	-6410
▁accommod	-6411
▁behavior	-6412
▁89	-6413
▁Int	-6414
ivals	-6415
▁colour	-6416
▁generation	-6417
▁passengers	-6418
▁communities	-6419
fl	-6420
▁fer	-6421
cation	-6422
▁nomination	-6423
▁Netherlands	-6424
▁FI	-6425
▁ham	-6426
▁acclaim	-6427
▁answ	-6428
▁84	-6429
lets	-6430
▁Sky	-6431
▁1910	-6432
▁1933	-6433
▁folk	-6434
▁shif	-6435
▁Univers	-6436
▁protest	-6437
▁ha	-6438
okes	-6439
oncé	-6440
▁Sher	-6441
▁Davis	-6442
▁Prior	-6443
▁grass	-6444
▁intercept	-6445
▁circulation	-6446
▁ban	-6447
▁subs	-6448
▁Diego	-6449
▁Today	-6450
▁Poland	-6451
▁cavalry	-6452
▁resources	-6453
heme	-6454
▁toll	-6455
▁warm	-6456
▁costs	-6457
▁Parker	-6458
▁sequel	-6459
▁Beyoncé	-6460
▁Roberts	-6461
▁interested	-6462
▁incorporated	-6463
▁ster	-6464
▁ratings	-6465
▁missions	-6466
▁Adv	-6467
udden	-6468
▁owner	-6469
▁missed	-6470
▁Channel	-6471
▁Rolling	-6472
▁accused	-6473
▁decline	-6474
▁graphics	-6475
▁strongly	-6476
▁surviving	-6477
▁Rele	-6478
▁Treat	-6479
▁Unlike	-6480
▁speaking	-6481
▁association	-6482
itzer	-6483
▁destruction	-6484
▁83	-6485
ansas	-6486
▁Family	-6487
▁controversy	-6488
▁hill	-6489
▁rooms	-6490
▁bringing	-6491
▁Ho	-6492
▁NC	-6493
abled	-6494
▁bands	-6495
▁dress	-6496
▁neighbor	-6497
▁Wels	-6498
▁stands	-6499
▁universe	-6500
▁Ak	-6501
▁DE	-6502
aska	-6503
▁Oliv	-6504
▁Anton	-6505
▁Marine	-6506
▁slowly	-6507
ta	-6508
▁commit	-6509
▁Norwegian	-6510
char	-6511
iley	-6512
weight	-6513
▁category	-6514
▁Ira	-6515
▁aer	-6516
after	-6517
cknow	-6518
organ	-6519
▁cong	-6520
ighters	-6521
▁aboard	-6522
▁passage	-6523
▁facility	-6524
nings	-6525
▁Ever	-6526
▁convent	-6527
▁Construction	-6528
iate	-6529
uble	-6530
ekend	-6531
angerous	-6532
▁Beatles	-6533
▁Stanley	-6534
▁Cart	-6535
▁Death	-6536
▁Malays	-6537
▁AI	-6538
▁Tok	-6539
▁Adam	-6540
▁spin	-6541
▁accounts	-6542
▁intention	-6543
▁separated	-6544
▁classified	-6545
▁1949	-6546
▁formal	-6547
ules	-6548
borne	-6549
▁Hero	-6550
▁Lanc	-6551
▁Welsh	-6552
▁trains	-6553
▁neither	-6554
▁completion	-6555
▁inspiration	-6556
▁archae	-6557
▁dissip	-6558
▁din	-6559
▁flo	-6560
▁Roger	-6561
▁fruit	-6562
▁Korean	-6563
▁grounds	-6564
▁retreat	-6565
▁otherwise	-6566
▁Every	-6567
▁wings	-6568
▁praise	-6569
▁reinforce	-6570
lan	-6571
avel	-6572
isms	-6573
▁Mit	-6574
▁ready	-6575
▁shore	-6576
▁independence	-6577
eing	-6578
▁fled	-6579
▁acknow	-6580
▁Chamber	-6581
hr	-6582
▁tied	-6583
▁Techn	-6584
▁exception	-6585
▁Cab	-6586
▁buy	-6587
▁Here	-6588
▁Rose	-6589
▁desire	-6590
▁satisf	-6591
▁premiere	-6592
ici	-6593
regon	-6594
▁Design	-6595
▁difficulty	-6596
▁lake	-6597
othing	-6598
▁Found	-6599
▁minister	-6600
▁Temple	-6601
▁ow	-6602
riers	-6603
▁Anne	-6604
▁climate	-6605
imb	-6606
icit	-6607
▁obl	-6608
ullivan	-6609
▁Philip	-6610
▁weapon	-6611
emet	-6612
▁hoped	-6613
▁Profess	-6614
▁relative	-6615
▁temporary	-6616
▁ble	-6617
▁opposite	-6618
▁attracted	-6619
▁Medal	-6620
▁Oregon	-6621
▁sounds	-6622
▁breaking	-6623
▁Sax	-6624
▁pure	-6625
▁Harris	-6626
aver	-6627
fire	-6628
ompl	-6629
▁rose	-6630
▁Heart	-6631
▁mathem	-6632
▁seemed	-6633
ategy	-6634
teenth	-6635
▁grade	-6636
▁departure	-6637
▁od	-6638
rete	-6639
▁Obs	-6640
▁Marg	-6641
▁raise	-6642
emetery	-6643
▁regiment	-6644
uty	-6645
▁Cher	-6646
▁ancest	-6647
▁chorus	-6648
▁owners	-6649
▁restaur	-6650
▁wearing	-6651
▁thirty	-6652
▁greatly	-6653
▁supporters	-6654
▁Es	-6655
▁Jam	-6656
risis	-6657
▁Bang	-6658
▁Scully	-6659
▁carbon	-6660
▁valley	-6661
▁Express	-6662
wan	-6663
roit	-6664
▁authors	-6665
olec	-6666
▁Lennon	-6667
▁alleged	-6668
wealth	-6669
▁Allen	-6670
▁recovered	-6671
aug	-6672
▁Kat	-6673
▁courts	-6674
▁romantic	-6675
▁architecture	-6676
▁”	-6677
▁ash	-6678
▁gal	-6679
oming	-6680
▁Scient	-6681
▁warning	-6682
▁differences	-6683
asure	-6684
atinum	-6685
▁Journal	-6686
▁bombard	-6687
▁Pow	-6688
▁fine	-6689
▁feeling	-6690
▁massive	-6691
▁Morrison	-6692
▁transition	-6693
▁Dest	-6694
▁unusual	-6695
▁sessions	-6696
aha	-6697
ompson	-6698
▁stood	-6699
▁worst	-6700
▁cruiser	-6701
▁emerged	-6702
anz	-6703
don	-6704
ogen	-6705
▁VII	-6706
▁Silver	-6707
▁medieval	-6708
▁predecess	-6709
▁Zh	-6710
▁effectively	-6711
▁skin	-6712
▁astron	-6713
▁eleven	-6714
▁Thompson	-6715
▁colonial	-6716
▁emergency	-6717
▁Su	-6718
▁moves	-6719
▁adults	-6720
▁Federal	-6721
pective	-6722
▁atmosphere	-6723
▁Whe	-6724
▁sky	-6725
▁experiences	-6726
ooth	-6727
opes	-6728
ewhat	-6729
▁Bros	-6730
▁surviv	-6731
▁falling	-6732
osure	-6733
▁Cook	-6734
▁persu	-6735
▁assemb	-6736
▁returns	-6737
▁Television	-6738
▁establishment	-6739
▁Az	-6740
▁bats	-6741
▁inner	-6742
▁penal	-6743
▁depict	-6744
▁legislation	-6745
▁“	-6746
ati	-6747
emed	-6748
▁Dog	-6749
▁wins	-6750
▁Freder	-6751
▁driven	-6752
▁Hamilton	-6753
▁finishing	-6754
▁musicians	-6755
obi	-6756
▁needs	-6757
▁Advent	-6758
▁assass	-6759
▁dating	-6760
▁crosses	-6761
▁theatre	-6762
▁criminal	-6763
▁festival	-6764
aints	-6765
▁Nich	-6766
ogether	-6767
▁Puerto	-6768
▁reserv	-6769
▁mo	-6770
yard	-6771
inton	-6772
▁Your	-6773
▁Modern	-6774
▁determine	-6775
▁none	-6776
▁cancer	-6777
▁responsibility	-6778
nest	-6779
▁factors	-6780
▁regularly	-6781
▁Now	-6782
▁else	-6783
▁throne	-6784
eor	-6785
nic	-6786
▁teen	-6787
▁tele	-6788
▁Justice	-6789
▁McG	-6790
▁Oak	-6791
▁Thus	-6792
▁concerned	-6793
▁Moore	-6794
▁ridge	-6795
▁accompl	-6796
▁somewhat	-6797
▁truck	-6798
▁Albums	-6799
▁biggest	-6800
▁forming	-6801
▁starred	-6802
▁narrative	-6803
▁historians	-6804
▁replacement	-6805
▁Ey	-6806
▁Ok	-6807
▁Lyn	-6808
orage	-6809
▁clubs	-6810
▁crash	-6811
▁quant	-6812
▁crop	-6813
▁mine	-6814
▁hotel	-6815
▁Carter	-6816
▁rescue	-6817
ela	-6818
upt	-6819
▁PC	-6820
▁NFL	-6821
▁Disc	-6822
▁ille	-6823
▁Detroit	-6824
▁synthes	-6825
▁passenger	-6826
▁afterwards	-6827
▁USS	-6828
orrow	-6829
▁absor	-6830
▁Commonwealth	-6831
▁Born	-6832
▁poly	-6833
▁Winter	-6834
▁animated	-6835
▁railroad	-6836
ova	-6837
rees	-6838
▁Along	-6839
▁convinced	-6840
▁distributed	-6841
ja	-6842
going	-6843
orial	-6844
pping	-6845
▁plane	-6846
▁streets	-6847
▁rum	-6848
▁sale	-6849
▁memory	-6850
rait	-6851
▁Hong	-6852
▁holds	-6853
▁Sports	-6854
jan	-6855
▁Arn	-6856
▁eggs	-6857
▁Pok	-6858
cious	-6859
▁Domin	-6860
▁flank	-6861
▁segment	-6862
▁Hospital	-6863
▁everyone	-6864
▁1921	-6865
▁Whit	-6866
▁Marshall	-6867
▁scheme	-6868
▁constant	-6869
▁techniques	-6870
▁eat	-6871
▁skills	-6872
▁Anthony	-6873
▁Patrick	-6874
▁Ark	-6875
▁cul	-6876
▁partn	-6877
▁injuries	-6878
▁interior	-6879
▁Commander	-6880
▁Hand	-6881
▁meets	-6882
▁spoke	-6883
▁strategy	-6884
▁Gun	-6885
acent	-6886
▁loyal	-6887
▁funding	-6888
▁appropri	-6889
▁temperatures	-6890
▁ensure	-6891
▁immediate	-6892
▁vir	-6893
▁Iraq	-6894
▁superv	-6895
▁offices	-6896
▁memorial	-6897
▁difference	-6898
▁properties	-6899
▁WWE	-6900
▁Jacob	-6901
▁Master	-6902
▁claiming	-6903
▁die	-6904
istol	-6905
uther	-6906
▁races	-6907
▁batting	-6908
▁methods	-6909
▁materials	-6910
ez	-6911
▁06	-6912
anton	-6913
▁1900	-6914
▁weekend	-6915
▁dipl	-6916
▁stead	-6917
▁requested	-6918
ca	-6919
ras	-6920
▁Ele	-6921
▁girls	-6922
▁Shakesp	-6923
▁900	-6924
▁1913	-6925
▁sudden	-6926
▁academic	-6927
▁believes	-6928
▁Mulder	-6929
▁engineer	-6930
▁Bah	-6931
▁Again	-6932
▁sympt	-6933
agu	-6934
oust	-6935
▁Third	-6936
▁shots	-6937
ugoslav	-6938
▁delayed	-6939
▁remember	-6940
▁interests	-6941
▁anyone	-6942
▁precip	-6943
▁dominated	-6944
ilst	-6945
▁shr	-6946
▁Corporation	-6947
elle	-6948
irds	-6949
▁hal	-6950
icians	-6951
▁armor	-6952
▁characteristics	-6953
apse	-6954
▁Centre	-6955
▁surrounded	-6956
bell	-6957
icate	-6958
▁Hans	-6959
▁restored	-6960
▁entertain	-6961
▁premiered	-6962
nce	-6963
ouri	-6964
pper	-6965
inals	-6966
▁Buff	-6967
▁renew	-6968
▁Argent	-6969
▁seeing	-6970
▁movements	-6971
omot	-6972
ossible	-6973
▁releases	-6974
▁Carib	-6975
▁enters	-6976
▁habitat	-6977
▁picture	-6978
▁battleships	-6979
▁heat	-6980
▁lane	-6981
apping	-6982
▁Banks	-6983
▁deleg	-6984
▁tries	-6985
▁lat	-6986
▁Evans	-6987
▁pound	-6988
▁pitched	-6989
▁superior	-6990
▁Constitution	-6991
▁1932	-6992
▁novels	-6993
▁trials	-6994
▁Yugoslav	-6995
body	-6996
▁Desc	-6997
▁Wing	-6998
▁bond	-6999
▁hear	-7000
▁Nixon	-7001
▁alleg	-7002
▁outbreak	-7003
▁involvement	-7004
▁Sarah	-7005
▁Library	-7006
▁victims	-7007
▁emotional	-7008
▁1890	-7009
▁Pear	-7010
▁judge	-7011
▁ninth	-7012
▁wrong	-7013
▁operate	-7014
▁secured	-7015
▁remn	-7016
urd	-7017
▁1934	-7018
▁vide	-7019
▁check	-7020
▁fitted	-7021
▁library	-7022
▁partner	-7023
▁reviewer	-7024
real	-7025
▁enh	-7026
ronze	-7027
scape	-7028
▁Budd	-7029
▁Francis	-7030
▁commemor	-7031
▁depicted	-7032
▁Education	-7033
aired	-7034
▁1931	-7035
▁Late	-7036
▁ment	-7037
▁leads	-7038
▁airport	-7039
angers	-7040
edding	-7041
▁Ult	-7042
rices	-7043
▁code	-7044
▁dollar	-7045
▁garrison	-7046
▁convection	-7047
▁strengthen	-7048
▁NBC	-7049
▁Knight	-7050
▁longest	-7051
▁dismissed	-7052
▁Buck	-7053
▁Ba	-7054
agre	-7055
hire	-7056
ching	-7057
▁doct	-7058
▁detailed	-7059
CC	-7060
lie	-7061
▁Nar	-7062
eenth	-7063
▁belt	-7064
▁giant	-7065
▁encountered	-7066
yo	-7067
▁Glob	-7068
▁Origin	-7069
▁Wright	-7070
▁reconst	-7071
▁hundreds	-7072
▁learning	-7073
▁retirement	-7074
▁anniversary	-7075
mb	-7076
aste	-7077
▁maint	-7078
▁recru	-7079
▁handed	-7080
▁representing	-7081
▁USA	-7082
▁Labor	-7083
▁consp	-7084
viation	-7085
▁Network	-7086
phy	-7087
▁fal	-7088
amese	-7089
bourne	-7090
▁chain	-7091
▁plate	-7092
▁credit	-7093
▁bridges	-7094
▁trained	-7095
▁protagonist	-7096
▁Dor	-7097
▁Anglo	-7098
▁journalist	-7099
▁documentary	-7100
DS	-7101
icy	-7102
wich	-7103
chang	-7104
▁Player	-7105
▁closer	-7106
▁Shakespe	-7107
▁Cz	-7108
▁ru	-7109
▁1911	-7110
urance	-7111
▁Korea	-7112
▁veter	-7113
▁finals	-7114
sex	-7115
chen	-7116
ternal	-7117
▁municip	-7118
▁designer	-7119
▁favorite	-7120
▁reviewers	-7121
▁reportedly	-7122
▁Shakespeare	-7123
aya	-7124
coming	-7125
▁hunting	-7126
▁Missouri	-7127
▁preferred	-7128
li	-7129
ker	-7130
owa	-7131
umin	-7132
eping	-7133
Arthur	-7134
▁Rey	-7135
rophy	-7136
▁Jews	-7137
▁Organ	-7138
▁scrap	-7139
▁veget	-7140
▁Premier	-7141
▁inhabit	-7142
▁moderate	-7143
book	-7144
▁san	-7145
▁lies	-7146
▁Canal	-7147
▁tests	-7148
▁bright	-7149
▁expect	-7150
▁Russell	-7151
▁influential	-7152
otes	-7153
iable	-7154
olves	-7155
▁Last	-7156
▁divor	-7157
▁union	-7158
▁adaptation	-7159
AR	-7160
tha	-7161
helm	-7162
▁Nob	-7163
night	-7164
▁sight	-7165
▁McCart	-7166
▁concur	-7167
▁Indians	-7168
▁isolated	-7169
▁standards	-7170
oyd	-7171
text	-7172
▁Tal	-7173
▁1926	-7174
ultane	-7175
▁partly	-7176
▁photograph	-7177
oh	-7178
aser	-7179
▁Track	-7180
▁Houston	-7181
▁freedom	-7182
▁dub	-7183
▁Free	-7184
▁ocean	-7185
▁visible	-7186
lee	-7187
abil	-7188
▁Rain	-7189
▁gets	-7190
▁gone	-7191
▁siege	-7192
▁looked	-7193
▁suffering	-7194
▁basketball	-7195
una	-7196
ygen	-7197
▁140	-7198
▁1912	-7199
▁Mint	-7200
▁Front	-7201
▁excess	-7202
atically	-7203
▁Chronic	-7204
▁programme	-7205
▁grey	-7206
▁Asian	-7207
▁nickn	-7208
▁discussed	-7209
▁languages	-7210
▁questions	-7211
▁conclusion	-7212
▁Bou	-7213
▁Horn	-7214
▁detail	-7215
▁informed	-7216
▁submarine	-7217
ban	-7218
noon	-7219
▁Bir	-7220
power	-7221
▁sees	-7222
▁Morgan	-7223
▁behavi	-7224
▁taught	-7225
▁formerly	-7226
▁imprison	-7227
▁appearing	-7228
eton	-7229
anium	-7230
using	-7231
▁Conc	-7232
▁Spears	-7233
▁ranking	-7234
▁modified	-7235
▁Philippines	-7236
bean	-7237
oles	-7238
▁Ric	-7239
icide	-7240
▁flew	-7241
▁Adams	-7242
▁cycle	-7243
▁uniform	-7244
▁substantial	-7245
▁Cry	-7246
icine	-7247
▁canal	-7248
achment	-7249
▁linked	-7250
igration	-7251
▁absence	-7252
▁McCartney	-7253
▁attempting	-7254
▁continuing	-7255
▁encouraged	-7256
rot	-7257
▁08	-7258
▁sed	-7259
tenance	-7260
▁comments	-7261
▁acknowled	-7262
ée	-7263
▁Hop	-7264
▁ori	-7265
▁ski	-7266
▁Finn	-7267
▁Xbox	-7268
▁styles	-7269
▁pointed	-7270
▁MacArthur	-7271
▁Hin	-7272
▁fur	-7273
▁periods	-7274
▁presidential	-7275
▁Miam	-7276
▁resear	-7277
▁deployed	-7278
▁attacking	-7279
▁*	-7280
igen	-7281
▁Aud	-7282
▁RAF	-7283
▁1929	-7284
▁molec	-7285
▁deemed	-7286
▁Tenness	-7287
▁destroyers	-7288
away	-7289
▁dollars	-7290
▁drawing	-7291
▁successor	-7292
mes	-7293
▁Belg	-7294
▁copper	-7295
▁vision	-7296
▁notably	-7297
▁formally	-7298
▁frequent	-7299
▁measures	-7300
▁visitors	-7301
▁unsuccessful	-7302
AAF	-7303
ctic	-7304
spec	-7305
▁Forces	-7306
▁relationships	-7307
ois	-7308
enson	-7309
▁Gill	-7310
▁Portug	-7311
▁junior	-7312
▁compete	-7313
▁Hungarian	-7314
▁functions	-7315
▁Vietnamese	-7316
▁arrangement	-7317
▁controversial	-7318
▁environmental	-7319
▁Bed	-7320
▁Guy	-7321
▁aged	-7322
▁spend	-7323
▁existed	-7324
▁publisher	-7325
▁09	-7326
▁Miami	-7327
▁depos	-7328
▁falls	-7329
▁rarely	-7330
▁Country	-7331
▁chapter	-7332
▁penalty	-7333
▁instance	-7334
▁influences	-7335
▁Dur	-7336
▁bes	-7337
▁bon	-7338
▁map	-7339
iliar	-7340
▁Ridge	-7341
▁agree	-7342
▁driver	-7343
▁reveals	-7344
▁organizations	-7345
ece	-7346
raph	-7347
▁executed	-7348
ture	-7349
usic	-7350
▁Ped	-7351
▁boil	-7352
▁Police	-7353
▁indicate	-7354
ón	-7355
▁facing	-7356
▁temple	-7357
▁chemical	-7358
▁opponents	-7359
▁Ts	-7360
▁suit	-7361
onymous	-7362
▁legend	-7363
▁apparently	-7364
thm	-7365
▁format	-7366
▁churches	-7367
▁childhood	-7368
▁lob	-7369
arked	-7370
▁Cred	-7371
▁Grammy	-7372
▁Guitar	-7373
▁gather	-7374
▁Rih	-7375
ribed	-7376
▁Turk	-7377
▁bear	-7378
ropolitan	-7379
▁watching	-7380
▁170	-7381
▁McL	-7382
enses	-7383
▁legs	-7384
▁tempor	-7385
▁Rihanna	-7386
▁achieve	-7387
▁defeating	-7388
oken	-7389
▁chairman	-7390
▁Tennessee	-7391
▁flu	-7392
▁ray	-7393
▁diver	-7394
▁intent	-7395
▁Portland	-7396
▁resigned	-7397
▁thousand	-7398
▁traveled	-7399
▁Caribbean	-7400
uster	-7401
▁Then	-7402
uscript	-7403
▁complic	-7404
▁monarch	-7405
ko	-7406
▁kid	-7407
▁Brig	-7408
▁boys	-7409
▁extent	-7410
▁lowest	-7411
ographical	-7412
▁scientists	-7413
▁vic	-7414
▁seed	-7415
▁verse	-7416
▁Croatia	-7417
▁happened	-7418
▁phr	-7419
orous	-7420
▁Peng	-7421
mun	-7422
▁Rick	-7423
▁safe	-7424
▁Tamil	-7425
▁overs	-7426
▁factor	-7427
▁values	-7428
▁historic	-7429
▁thereafter	-7430
oys	-7431
▁Dean	-7432
▁Flight	-7433
▁landed	-7434
▁athletes	-7435
▁cruisers	-7436
▁normally	-7437
▁battleship	-7438
▁understand	-7439
▁Ye	-7440
fare	-7441
▁Perry	-7442
▁founder	-7443
▁convention	-7444
▁participate	-7445
MA	-7446
ses	-7447
▁Op	-7448
mers	-7449
▁treated	-7450
▁defended	-7451
▁Nevertheless	-7452
▁Pitts	-7453
▁cargo	-7454
▁Legacy	-7455
▁storms	-7456
▁afternoon	-7457
▁1905	-7458
▁Dave	-7459
▁mamm	-7460
▁Blood	-7461
▁anticip	-7462
▁channel	-7463
▁accompany	-7464
▁Hu	-7465
agen	-7466
▁pull	-7467
▁symp	-7468
▁Queens	-7469
▁Warner	-7470
▁Austria	-7471
▁divisions	-7472
▁partially	-7473
▁percentage	-7474
▁Dw	-7475
usted	-7476
▁Omaha	-7477
▁diplom	-7478
▁instruments	-7479
▁drums	-7480
▁honour	-7481
▁intense	-7482
▁painted	-7483
▁dialogue	-7484
▁impressed	-7485
▁neighborhood	-7486
▁05	-7487
ache	-7488
iece	-7489
▁Know	-7490
ooking	-7491
▁Jesus	-7492
▁Author	-7493
▁tribes	-7494
▁housing	-7495
▁generated	-7496
arsh	-7497
▁1927	-7498
▁solar	-7499
▁Minnes	-7500
▁picked	-7501
▁symptoms	-7502
opter	-7503
▁easy	-7504
▁Brother	-7505
ugby	-7506
encing	-7507
▁vessel	-7508
▁Interstate	-7509
oen	-7510
▁Dom	-7511
▁beach	-7512
▁Industry	-7513
▁territories	-7514
▁collaboration	-7515
uts	-7516
▁unn	-7517
▁neck	-7518
▁Santa	-7519
▁corpor	-7520
▁fighter	-7521
▁prevented	-7522
▁technique	-7523
▁understanding	-7524
raf	-7525
usal	-7526
▁Est	-7527
▁Niel	-7528
▁proced	-7529
▁pushed	-7530
IA	-7531
▁Bor	-7532
▁Cas	-7533
▁Dal	-7534
oster	-7535
▁Anim	-7536
▁covers	-7537
▁enthus	-7538
▁firing	-7539
▁hearing	-7540
▁Iowa	-7541
▁util	-7542
▁brand	-7543
▁windows	-7544
▁possession	-7545
▁engineering	-7546
rig	-7547
iens	-7548
▁Spe	-7549
prise	-7550
▁ride	-7551
▁alien	-7552
▁diagn	-7553
▁Manning	-7554
▁Ministry	-7555
kes	-7556
icts	-7557
oked	-7558
▁absol	-7559
▁pregn	-7560
▁truth	-7561
▁withdrew	-7562
overe	-7563
▁Islam	-7564
▁deter	-7565
▁stable	-7566
▁voiced	-7567
▁dangerous	-7568
▁refers	-7569
▁exposed	-7570
ds	-7571
▁rates	-7572
▁poetry	-7573
▁whereas	-7574
▁164	-7575
▁Get	-7576
▁Leaf	-7577
▁Nash	-7578
▁restric	-7579
onto	-7580
oral	-7581
▁Web	-7582
ennis	-7583
inder	-7584
▁Soon	-7585
▁colony	-7586
▁designation	-7587
▁Championships	-7588
rad	-7589
▁AR	-7590
▁USD	-7591
▁tie	-7592
▁Ford	-7593
▁Hell	-7594
▁Human	-7595
▁Clinton	-7596
▁degrees	-7597
ifer	-7598
▁Bry	-7599
▁rot	-7600
▁happy	-7601
▁uncertain	-7602
ao	-7603
zz	-7604
yrus	-7605
ception	-7606
▁resign	-7607
▁adjacent	-7608
▁127	-7609
▁1908	-7610
rupted	-7611
▁Writing	-7612
▁classical	-7613
▁recordings	-7614
▁negotiations	-7615
ji	-7616
▁Tun	-7617
▁oxygen	-7618
▁tunnel	-7619
▁Category	-7620
▁teaching	-7621
▁upgraded	-7622
▁Initially	-7623
▁manuscript	-7624
▁trend	-7625
▁Switzer	-7626
▁collapse	-7627
▁concrete	-7628
▁ju	-7629
▁Daw	-7630
▁Edd	-7631
▁Lim	-7632
▁upd	-7633
▁Michel	-7634
▁Murphy	-7635
▁horror	-7636
▁personality	-7637
▁representative	-7638
▁DNA	-7639
▁Lev	-7640
▁Typ	-7641
▁Goth	-7642
▁Ward	-7643
▁thin	-7644
▁Princess	-7645
EC	-7646
rum	-7647
▁Event	-7648
▁categ	-7649
▁advice	-7650
▁keeping	-7651
▁testing	-7652
▁Giants	-7653
▁benefit	-7654
▁tribute	-7655
▁explosion	-7656
▁Bull	-7657
active	-7658
▁inaug	-7659
▁Berlin	-7660
▁consult	-7661
▁simultane	-7662
▁specimens	-7663
▁Switzerland	-7664
har	-7665
rams	-7666
▁sank	-7667
▁initi	-7668
▁cooper	-7669
▁1925	-7670
▁Dead	-7671
▁Burton	-7672
▁Native	-7673
▁extreme	-7674
▁forests	-7675
▁surrender	-7676
▁occupation	-7677
▁ca	-7678
itud	-7679
▁Cuba	-7680
▁arts	-7681
▁huge	-7682
ocking	-7683
▁doesn	-7684
▁prime	-7685
▁Social	-7686
overeign	-7687
▁credits	-7688
onn	-7689
burn	-7690
▁Ald	-7691
▁Jess	-7692
▁inher	-7693
▁relie	-7694
▁collaps	-7695
▁controll	-7696
▁Wrestling	-7697
▁maintenance	-7698
bec	-7699
▁Vice	-7700
ellite	-7701
▁anime	-7702
▁shear	-7703
▁Samuel	-7704
▁minimal	-7705
hi	-7706
▁pin	-7707
avery	-7708
▁Swiss	-7709
▁advis	-7710
▁teeth	-7711
▁medium	-7712
atherine	-7713
▁partnership	-7714
▁residential	-7715
▁Mars	-7716
▁diff	-7717
▁phen	-7718
▁sunk	-7719
▁bases	-7720
▁Treaty	-7721
▁Walker	-7722
▁listing	-7723
▁proport	-7724
▁examples	-7725
▁Czech	-7726
mission	-7727
▁excell	-7728
▁treaty	-7729
▁recommend	-7730
▁survivors	-7731
▁electronic	-7732
jo	-7733
alions	-7734
▁acted	-7735
▁Graham	-7736
▁Belgium	-7737
▁announce	-7738
mate	-7739
▁cub	-7740
atics	-7741
▁diet	-7742
▁hull	-7743
unction	-7744
▁powered	-7745
▁reprodu	-7746
▁describe	-7747
ori	-7748
▁dies	-7749
▁Story	-7750
▁audio	-7751
▁Mississ	-7752
▁Pakistan	-7753
gery	-7754
▁1922	-7755
▁tone	-7756
▁crest	-7757
▁votes	-7758
▁ske	-7759
▁excav	-7760
▁mining	-7761
▁footage	-7762
ogan	-7763
▁brick	-7764
▁goods	-7765
▁Sweden	-7766
oto	-7767
▁Bi	-7768
▁Fal	-7769
▁hat	-7770
▁mir	-7771
▁1928	-7772
▁turb	-7773
▁rivers	-7774
▁Bradman	-7775
▁creator	-7776
▁fifteen	-7777
▁resumed	-7778
▁spending	-7779
▁employees	-7780
▁ax	-7781
▁1880	-7782
▁Comb	-7783
asters	-7784
▁refuge	-7785
▁Release	-7786
▁locomot	-7787
▁moments	-7788
▁telling	-7789
▁resolution	-7790
▁difficulties	-7791
ito	-7792
▁EP	-7793
▁ic	-7794
▁vul	-7795
▁Having	-7796
▁Baseball	-7797
ali	-7798
▁els	-7799
forced	-7800
▁flash	-7801
▁unlike	-7802
▁Toronto	-7803
▁carrier	-7804
▁elsewhere	-7805
onnaissance	-7806
▁Iv	-7807
▁meat	-7808
itting	-7809
▁Hardy	-7810
▁Health	-7811
▁ethnic	-7812
▁Peninsula	-7813
▁philosophy	-7814
▁recognised	-7815
elesc	-7816
▁Somers	-7817
▁Nielsen	-7818
▁dispute	-7819
▁seeking	-7820
▁Raw	-7821
▁Wag	-7822
▁recur	-7823
▁prohib	-7824
▁nations	-7825
▁covering	-7826
▁occasions	-7827
▁Non	-7828
▁Sle	-7829
▁1909	-7830
▁pool	-7831
▁Guardian	-7832
▁Raj	-7833
▁Dick	-7834
▁Poké	-7835
▁innov	-7836
▁Athlet	-7837
▁doctor	-7838
▁restrict	-7839
▁criticised	-7840
▁agricultural	-7841
gro	-7842
utton	-7843
▁crisis	-7844
▁Hungary	-7845
▁departed	-7846
▁elections	-7847
ls	-7848
inction	-7849
▁Seattle	-7850
▁fishing	-7851
▁turrets	-7852
▁friendly	-7853
▁platinum	-7854
▁Lov	-7855
etime	-7856
▁lose	-7857
▁Garden	-7858
▁videos	-7859
▁Perform	-7860
▁registered	-7861
▁McD	-7862
▁vice	-7863
▁Laure	-7864
▁window	-7865
▁displayed	-7866
urst	-7867
▁104	-7868
▁1924	-7869
▁blow	-7870
▁underw	-7871
ologists	-7872
▁Stewart	-7873
▁multipl	-7874
▁Township	-7875
host	-7876
▁wet	-7877
▁Holy	-7878
▁wreck	-7879
▁assess	-7880
▁argument	-7881
▁purposes	-7882
▁mountains	-7883
face	-7884
roke	-7885
▁Lin	-7886
▁Trek	-7887
▁sure	-7888
▁villages	-7889
alo	-7890
ami	-7891
unc	-7892
acle	-7893
▁Dod	-7894
ateur	-7895
▁permission	-7896
▁characterized	-7897
▁Heavy	-7898
▁Horse	-7899
▁Tokyo	-7900
▁Record	-7901
▁agents	-7902
▁violent	-7903
aws	-7904
▁DC	-7905
▁kW	-7906
hess	-7907
▁gat	-7908
▁bulk	-7909
▁grav	-7910
▁rounds	-7911
▁Croatian	-7912
▁Lawrence	-7913
▁underground	-7914
iac	-7915
hatt	-7916
▁Gab	-7917
▁tub	-7918
▁Benj	-7919
▁asks	-7920
▁Jason	-7921
▁filed	-7922
▁bombers	-7923
▁Bab	-7924
▁ped	-7925
▁Pick	-7926
▁exit	-7927
▁Alfred	-7928
▁schedule	-7929
CA	-7930
po	-7931
ester	-7932
▁grown	-7933
▁spotted	-7934
▁Benjamin	-7935
▁policies	-7936
▁Mes	-7937
▁Rap	-7938
▁Lith	-7939
▁Scout	-7940
▁Territ	-7941
▁chronic	-7942
▁escaped	-7943
▁feelings	-7944
▁Frederick	-7945
▁impossible	-7946
▁Christopher	-7947
▁option	-7948
▁balance	-7949
▁Somerset	-7950
dale	-7951
eled	-7952
▁Ian	-7953
▁Nancy	-7954
▁brain	-7955
▁whilst	-7956
amer	-7957
▁soil	-7958
itated	-7959
▁Margaret	-7960
▁situated	-7961
err	-7962
olas	-7963
▁Gri	-7964
▁autobi	-7965
▁concerts	-7966
▁publicly	-7967
▁abilities	-7968
▁documents	-7969
oking	-7970
orious	-7971
▁tenth	-7972
resents	-7973
▁forcing	-7974
▁joining	-7975
▁storage	-7976
▁approval	-7977
strong	-7978
▁alter	-7979
▁mines	-7980
▁elabor	-7981
▁distinctive	-7982
SP	-7983
tic	-7984
▁1870	-7985
▁Baby	-7986
▁lemur	-7987
▁spiritual	-7988
▁Mississipp	-7989
▁eliminated	-7990
20	-7991
▁tot	-7992
ureau	-7993
▁mand	-7994
▁pole	-7995
ecraft	-7996
▁lists	-7997
▁recre	-7998
▁waves	-7999
▁flights	-8000
▁businesses	-8001
▁Si	-8002
▁Sav	-8003
▁wickets	-8004
▁disaster	-8005
▁Minnesota	-8006
▁Hav	-8007
▁rit	-8008
iders	-8009
▁device	-8010
▁neutral	-8011
▁assisted	-8012
▁foundation	-8013
▁represents	-8014
▁intensified	-8015
axy	-8016
ran	-8017
unes	-8018
▁Ext	-8019
▁Lost	-8020
▁Seven	-8021
▁explo	-8022
▁bacter	-8023
▁nom	-8024
▁prosp	-8025
iveness	-8026
▁apprec	-8027
▁360	-8028
obile	-8029
▁wedding	-8030
▁changing	-8031
▁competed	-8032
hm	-8033
▁Cold	-8034
▁pron	-8035
▁marry	-8036
▁Administ	-8037
▁circumst	-8038
▁mainland	-8039
▁paintings	-8040
▁attendance	-8041
▁interesting	-8042
▁vel	-8043
throp	-8044
▁1904	-8045
▁prompted	-8046
▁travelled	-8047
idi	-8048
uda	-8049
ardo	-8050
▁Kelly	-8051
▁seats	-8052
▁ranging	-8053
▁suicide	-8054
▁controls	-8055
▁junction	-8056
▁err	-8057
species	-8058
▁07	-8059
rome	-8060
▁Hamp	-8061
▁feud	-8062
ounced	-8063
▁Mason	-8064
▁rebuilt	-8065
▁monument	-8066
▁newspapers	-8067
▁Rud	-8068
▁Much	-8069
▁Wolf	-8070
▁marks	-8071
▁deliber	-8072
▁diameter	-8073
▁165	-8074
▁draf	-8075
▁Hotel	-8076
▁Greece	-8077
▁finale	-8078
▁rebell	-8079
▁helping	-8080
▁stem	-8081
▁asking	-8082
▁discip	-8083
▁Thunder	-8084
▁survive	-8085
▁arriving	-8086
▁measured	-8087
▁preserved	-8088
utt	-8089
reted	-8090
▁1923	-8091
▁hybr	-8092
▁outf	-8093
▁Return	-8094
▁sector	-8095
▁Senator	-8096
▁Mun	-8097
ridge	-8098
imeter	-8099
▁Ottawa	-8100
▁Pokémon	-8101
▁sequences	-8102
▁01	-8103
itter	-8104
sters	-8105
▁Mort	-8106
▁protein	-8107
▁scholar	-8108
▁fighters	-8109
▁Byzantine	-8110
▁observations	-8111
ES	-8112
osm	-8113
inea	-8114
▁bid	-8115
issions	-8116
▁Delaware	-8117
▁mainstream	-8118
▁demonstrated	-8119
aza	-8120
enh	-8121
uable	-8122
▁Ring	-8123
▁Blues	-8124
▁simpl	-8125
▁threw	-8126
▁bypass	-8127
▁creative	-8128
▁Melbourne	-8129
▁bot	-8130
▁Nazi	-8131
▁prol	-8132
▁parish	-8133
▁pounds	-8134
▁tornado	-8135
▁Business	-8136
▁playoffs	-8137
anta	-8138
▁fil	-8139
▁Cooper	-8140
▁lemurs	-8141
▁Critics	-8142
▁coordin	-8143
▁Wy	-8144
ques	-8145
rows	-8146
action	-8147
urally	-8148
attered	-8149
▁Turkish	-8150
▁Mississippi	-8151
OC	-8152
incial	-8153
▁Guide	-8154
▁multi	-8155
▁minimum	-8156
▁suspended	-8157
onies	-8158
▁murd	-8159
▁span	-8160
▁Rachel	-8161
▁Sullivan	-8162
▁expensive	-8163
▁professor	-8164
ilty	-8165
▁125	-8166
▁cod	-8167
▁lin	-8168
▁twin	-8169
▁ninet	-8170
▁recip	-8171
endment	-8172
▁temporarily	-8173
▁precipitation	-8174
▁111	-8175
▁pret	-8176
▁Small	-8177
▁overt	-8178
▁settlers	-8179
▁definition	-8180
▁instrumental	-8181
▁166	-8182
ectic	-8183
▁crews	-8184
▁usual	-8185
ulating	-8186
▁Leslie	-8187
▁Steven	-8188
▁racing	-8189
▁Ku	-8190
▁RAAF	-8191
ivated	-8192
▁Billy	-8193
▁pione	-8194
▁Morris	-8195
▁Newton	-8196
▁remove	-8197
▁encounter	-8198
▁Foundation	-8199
▁subt	-8200
▁dynasty	-8201
rage	-8202
▁tex	-8203
▁evil	-8204
▁Hockey	-8205
▁repairs	-8206
▁Armstrong	-8207
▁comparison	-8208
aks	-8209
orph	-8210
▁Glen	-8211
▁Cyrus	-8212
▁Trail	-8213
alities	-8214
▁smooth	-8215
▁earning	-8216
▁counties	-8217
▁thinking	-8218
▁animation	-8219
bl	-8220
▁Mrs	-8221
▁lect	-8222
▁artwork	-8223
▁Egyptian	-8224
oba	-8225
rang	-8226
▁fung	-8227
▁Trust	-8228
▁advoc	-8229
▁basin	-8230
ensions	-8231
▁Warren	-8232
▁Wilhelm	-8233
▁amongst	-8234
nie	-8235
▁Ali	-8236
▁Digital	-8237
▁explain	-8238
Sp	-8239
▁Cru	-8240
storm	-8241
▁Offic	-8242
uations	-8243
▁choose	-8244
▁poorly	-8245
▁genetic	-8246
▁synd	-8247
ellect	-8248
▁lanes	-8249
▁skull	-8250
▁argues	-8251
▁lacked	-8252
▁context	-8253
▁sisters	-8254
▁surrend	-8255
▁worship	-8256
▁familiar	-8257
▁struggle	-8258
▁distinguished	-8259
FC	-8260
▁Ple	-8261
▁Sab	-8262
▁rig	-8263
▁Call	-8264
▁jazz	-8265
▁moral	-8266
▁poems	-8267
▁procl	-8268
▁backing	-8269
▁illness	-8270
▁compilation	-8271
mates	-8272
▁Gaga	-8273
▁abund	-8274
▁Greater	-8275
▁boundary	-8276
▁Abu	-8277
▁pip	-8278
lings	-8279
▁clearly	-8280
▁closing	-8281
▁slavery	-8282
▁coverage	-8283
▁Represent	-8284
▁northward	-8285
▁electrical	-8286
▁Honor	-8287
▁strip	-8288
▁Muslim	-8289
▁severely	-8290
▁adventure	-8291
▁depending	-8292
▁ownership	-8293
▁inhabitants	-8294
agh	-8295
imore	-8296
▁1907	-8297
▁frig	-8298
▁obst	-8299
▁reun	-8300
▁aimed	-8301
▁liked	-8302
▁funeral	-8303
▁residence	-8304
▁mechanical	-8305
rep	-8306
rine	-8307
▁Cob	-8308
▁Race	-8309
▁Vinc	-8310
▁Somet	-8311
▁Stock	-8312
▁radar	-8313
▁affair	-8314
▁merchant	-8315
▁subspecies	-8316
▁03	-8317
overs	-8318
▁wasn	-8319
▁reven	-8320
▁Kansas	-8321
▁Oliver	-8322
▁Montreal	-8323
▁Railroad	-8324
▁audiences	-8325
▁Son	-8326
ascar	-8327
hattan	-8328
irates	-8329
▁ideal	-8330
munition	-8331
▁Swedish	-8332
▁civilian	-8333
▁Manhattan	-8334
je	-8335
amps	-8336
uary	-8337
▁Ren	-8338
▁Sym	-8339
▁Utah	-8340
▁gate	-8341
▁gray	-8342
▁Dance	-8343
▁institutions	-8344
cop	-8345
▁Jimmy	-8346
plement	-8347
nik	-8348
entle	-8349
ipped	-8350
▁Khan	-8351
▁Near	-8352
▁Roll	-8353
▁forty	-8354
▁panel	-8355
▁Angelou	-8356
▁dramatic	-8357
▁beautiful	-8358
▁contributions	-8359
▁Box	-8360
▁Heb	-8361
ouver	-8362
▁Bosn	-8363
▁Lane	-8364
▁repair	-8365
▁readers	-8366
rim	-8367
otton	-8368
igenous	-8369
▁explains	-8370
stal	-8371
▁168	-8372
▁173	-8373
▁Crown	-8374
▁Fried	-8375
▁attained	-8376
▁predomin	-8377
▁behaviour	-8378
▁victories	-8379
▁Richardson	-8380
aria	-8381
owed	-8382
▁copy	-8383
▁helic	-8384
▁Harvey	-8385
▁evolved	-8386
▁suitable	-8387
▁ML	-8388
amic	-8389
▁Ariz	-8390
▁kiss	-8391
▁Madag	-8392
▁breat	-8393
▁overw	-8394
▁terror	-8395
▁Charlie	-8396
▁Baltimore	-8397
▁Originally	-8398
▁application	-8399
pty	-8400
▁baby	-8401
▁vast	-8402
ieties	-8403
▁Girls	-8404
▁stere	-8405
▁citing	-8406
▁willing	-8407
sequently	-8408
▁dominant	-8409
▁perceived	-8410
gate	-8411
▁fifty	-8412
▁submitted	-8413
▁Pittsburgh	-8414
▁restricted	-8415
▁Mik	-8416
▁tru	-8417
▁1902	-8418
▁Kirk	-8419
▁Merc	-8420
▁drove	-8421
▁Napole	-8422
▁Depression	-8423
▁ammunition	-8424
▁Independent	-8425
▁operational	-8426
acon	-8427
▁myst	-8428
▁completing	-8429
hell	-8430
▁Stev	-8431
▁alco	-8432
▁retail	-8433
▁rising	-8434
inations	-8435
▁Program	-8436
▁suggesting	-8437
▁rif	-8438
arant	-8439
▁Marie	-8440
▁badly	-8441
▁frust	-8442
▁nucle	-8443
▁Dwight	-8444
▁Indies	-8445
▁string	-8446
▁Arizona	-8447
▁castles	-8448
▁signing	-8449
olis	-8450
▁Sega	-8451
▁boss	-8452
▁ranks	-8453
▁pulled	-8454
▁affairs	-8455
▁Internet	-8456
▁artistic	-8457
▁offering	-8458
▁lieutenant	-8459
▁communication	-8460
ović	-8461
rator	-8462
ubble	-8463
▁coup	-8464
▁Roose	-8465
▁Triple	-8466
▁obtain	-8467
▁pilots	-8468
▁demolished	-8469
▁households	-8470
fe	-8471
asa	-8472
▁Ay	-8473
otte	-8474
▁Rat	-8475
riors	-8476
▁neighb	-8477
▁exhibition	-8478
bra	-8479
gas	-8480
▁04	-8481
▁115	-8482
▁Hud	-8483
▁Yan	-8484
▁orn	-8485
▁Alice	-8486
▁Hindu	-8487
▁kings	-8488
▁Bureau	-8489
▁affect	-8490
▁behalf	-8491
▁condem	-8492
▁rhythm	-8493
▁console	-8494
▁Building	-8495
▁Roosevel	-8496
▁surprise	-8497
▁alignment	-8498
▁compounds	-8499
ags	-8500
din	-8501
idel	-8502
▁Say	-8503
▁signs	-8504
▁fallen	-8505
▁partial	-8506
▁vertical	-8507
▁electricity	-8508
▁cous	-8509
▁horn	-8510
▁margin	-8511
▁stress	-8512
▁bombing	-8513
▁circuit	-8514
▁imperial	-8515
▁administrative	-8516
▁Ll	-8517
pike	-8518
▁ben	-8519
▁wel	-8520
▁Area	-8521
▁liqu	-8522
▁loop	-8523
▁rout	-8524
▁armament	-8525
▁replacing	-8526
▁engagement	-8527
gie	-8528
imen	-8529
▁105	-8530
▁Cand	-8531
▁Antar	-8532
▁Phoen	-8533
▁Brooks	-8534
▁highways	-8535
▁Louisiana	-8536
▁cancelled	-8537
▁Constantine	-8538
ila	-8539
▁voy	-8540
▁strict	-8541
▁decides	-8542
▁targets	-8543
▁typhoon	-8544
▁colonies	-8545
▁Roosevelt	-8546
▁objective	-8547
▁conservative	-8548
aft	-8549
acked	-8550
▁elder	-8551
▁dimens	-8552
▁inland	-8553
▁limits	-8554
▁reaches	-8555
▁Connectic	-8556
▁candidates	-8557
▁Prom	-8558
ancouver	-8559
▁comfort	-8560
▁remarked	-8561
▁westward	-8562
▁Madagascar	-8563
▁Connecticut	-8564
rous	-8565
▁Amy	-8566
▁Joh	-8567
▁Pur	-8568
▁jur	-8569
orders	-8570
▁Metro	-8571
▁frame	-8572
▁revers	-8573
▁touring	-8574
▁Vancouver	-8575
▁alternate	-8576
▁predecessor	-8577
▁preparation	-8578
▁Nik	-8579
tario	-8580
▁Josh	-8581
▁plus	-8582
▁shells	-8583
▁Ontario	-8584
▁Campaign	-8585
▁musician	-8586
▁AM	-8587
urer	-8588
▁Inn	-8589
▁Kit	-8590
▁Vik	-8591
▁Johnny	-8592
▁triple	-8593
▁theater	-8594
▁delivery	-8595
▁reflected	-8596
▁gang	-8597
▁scen	-8598
▁pages	-8599
▁roots	-8600
▁wants	-8601
▁Econom	-8602
▁acceler	-8603
▁density	-8604
▁surgery	-8605
▁youngest	-8606
▁practices	-8607
onomy	-8608
▁1903	-8609
▁Brun	-8610
rating	-8611
▁Kings	-8612
▁Romney	-8613
▁peaking	-8614
▁intellect	-8615
▁Australians	-8616
▁appointment	-8617
uv	-8618
hum	-8619
rast	-8620
▁Stu	-8621
▁reluct	-8622
▁serial	-8623
▁profile	-8624
▁Cole	-8625
oustic	-8626
▁fixed	-8627
▁magic	-8628
▁soldier	-8629
▁Robinson	-8630
▁increases	-8631
▁improvements	-8632
rus	-8633
folk	-8634
▁1906	-8635
▁Fall	-8636
▁anch	-8637
▁pale	-8638
olition	-8639
raction	-8640
▁favorable	-8641
▁MP	-8642
oids	-8643
umps	-8644
▁Lem	-8645
▁kit	-8646
▁Edge	-8647
father	-8648
▁notice	-8649
▁electron	-8650
gom	-8651
itals	-8652
▁Mach	-8653
▁agency	-8654
▁militia	-8655
▁phenomen	-8656
▁Federation	-8657
LC	-8658
acre	-8659
enna	-8660
otten	-8661
▁Pope	-8662
▁indu	-8663
▁adopt	-8664
borough	-8665
▁engage	-8666
▁sample	-8667
▁forecast	-8668
▁expression	-8669
▁conventional	-8670
cho	-8671
▁ABC	-8672
▁Soul	-8673
▁salt	-8674
▁yield	-8675
▁exclud	-8676
▁offense	-8677
▁opponent	-8678
▁execution	-8679
▁Eventually	-8680
▁restoration	-8681
ogy	-8682
chell	-8683
estone	-8684
▁Wagner	-8685
▁succeed	-8686
▁Austrian	-8687
iph	-8688
▁coinc	-8689
▁bronze	-8690
▁prepare	-8691
▁disappoin	-8692
▁institution	-8693
▁Aff	-8694
▁outl	-8695
▁Polit	-8696
▁mayor	-8697
▁surge	-8698
▁wrest	-8699
▁hockey	-8700
▁fastest	-8701
▁shipping	-8702
▁provision	-8703
▁conversion	-8704
▁02	-8705
olid	-8706
▁Such	-8707
▁disl	-8708
▁quiet	-8709
▁Palest	-8710
▁wicket	-8711
▁tack	-8712
▁tiss	-8713
▁Bristol	-8714
▁emperor	-8715
▁Children	-8716
▁Indonesian	-8717
▁quarterback	-8718
▁reconnaissance	-8719
▁Oil	-8720
▁Ton	-8721
▁gap	-8722
omber	-8723
▁desert	-8724
▁patron	-8725
▁Players	-8726
▁demands	-8727
▁flagship	-8728
▁overseas	-8729
▁repeatedly	-8730
▁perspective	-8731
▁Pul	-8732
▁Thr	-8733
ipper	-8734
▁doubt	-8735
▁print	-8736
▁shift	-8737
▁topped	-8738
▁visiting	-8739
▁elevation	-8740
▁predicted	-8741
▁restaurant	-8742
▁tight	-8743
▁palace	-8744
▁enlisted	-8745
▁graduated	-8746
▁strategic	-8747
▁Maur	-8748
▁unex	-8749
assador	-8750
▁Potter	-8751
▁biographer	-8752
IV	-8753
▁Py	-8754
▁Ice	-8755
▁comed	-8756
▁colleagues	-8757
▁Æ	-8758
anches	-8759
▁McCain	-8760
▁faster	-8761
▁obvious	-8762
▁Champion	-8763
▁deterior	-8764
▁striking	-8765
▁subjects	-8766
▁Indonesia	-8767
▁essential	-8768
▁satellite	-8769
▁struggled	-8770
ghan	-8771
▁Inv	-8772
▁1893	-8773
terior	-8774
▁banks	-8775
▁legacy	-8776
▁stores	-8777
▁theore	-8778
▁compens	-8779
oga	-8780
▁false	-8781
▁Historic	-8782
▁birthday	-8783
▁entertainment	-8784
▁Haz	-8785
▁Lam	-8786
▁drugs	-8787
▁allies	-8788
▁guilty	-8789
▁traded	-8790
▁armored	-8791
▁feeding	-8792
▁promised	-8793
▁directors	-8794
▁battalions	-8795
▁interpretation	-8796
roe	-8797
xual	-8798
▁Juan	-8799
roc	-8800
andal	-8801
▁1860	-8802
▁Keith	-8803
▁bombs	-8804
▁hosts	-8805
ishment	-8806
ruption	-8807
▁armour	-8808
▁illegal	-8809
▁carriers	-8810
▁multiplayer	-8811
aba	-8812
▁Fem	-8813
illes	-8814
▁1901	-8815
▁Boys	-8816
▁Lucas	-8817
▁arrive	-8818
IS	-8819
ATO	-8820
roph	-8821
▁Len	-8822
▁Nat	-8823
▁abb	-8824
▁Hind	-8825
▁orbit	-8826
life	-8827
▁Nag	-8828
▁Shel	-8829
▁aspect	-8830
▁hidden	-8831
▁weekly	-8832
▁clothing	-8833
ante	-8834
▁Bears	-8835
▁erupt	-8836
▁Alexand	-8837
▁chamber	-8838
▁patterns	-8839
▁Cov	-8840
▁cup	-8841
rates	-8842
▁Snow	-8843
▁Baker	-8844
▁expand	-8845
▁Mountains	-8846
▁neighbour	-8847
rm	-8848
grad	-8849
▁Isa	-8850
▁Ship	-8851
▁Peace	-8852
▁immigr	-8853
▁useful	-8854
▁Persian	-8855
▁Original	-8856
▁demanded	-8857
▁meetings	-8858
plete	-8859
▁gust	-8860
▁Works	-8861
▁alive	-8862
▁venue	-8863
▁wider	-8864
aration	-8865
▁Friend	-8866
▁pursue	-8867
▁artific	-8868
▁removal	-8869
▁insisted	-8870
▁remnants	-8871
▁excellent	-8872
▁Christianity	-8873
▁Grey	-8874
inding	-8875
▁Hills	-8876
▁analog	-8877
aughters	-8878
▁feather	-8879
▁guarant	-8880
▁Benn	-8881
▁Pars	-8882
▁encl	-8883
rehens	-8884
▁seized	-8885
▁Rangers	-8886
▁reverse	-8887
▁samples	-8888
▁portions	-8889
▁starring	-8890
▁seriously	-8891
▁celebrated	-8892
▁circumstances	-8893
▁Tol	-8894
▁duo	-8895
▁lock	-8896
▁Files	-8897
▁manga	-8898
▁Dragon	-8899
▁fossil	-8900
▁papers	-8901
▁monaster	-8902
▁indicates	-8903
athy	-8904
▁loan	-8905
▁invent	-8906
▁Princip	-8907
▁assists	-8908
▁closest	-8909
▁continu	-8910
▁origins	-8911
▁Broadway	-8912
oz	-8913
olve	-8914
▁Less	-8915
▁Miles	-8916
▁Satur	-8917
▁Wayne	-8918
▁execut	-8919
▁explan	-8920
▁prices	-8921
▁towers	-8922
▁travels	-8923
case	-8924
phone	-8925
▁jobs	-8926
▁Swift	-8927
▁camps	-8928
▁surpass	-8929
▁specimen	-8930
▁nominations	-8931
equ	-8932
▁py	-8933
▁Apple	-8934
▁feels	-8935
▁vulner	-8936
thy	-8937
▁MS	-8938
▁174	-8939
▁Beng	-8940
azines	-8941
itudes	-8942
▁Malay	-8943
▁Flying	-8944
▁charter	-8945
▁placing	-8946
▁transportation	-8947
aud	-8948
lain	-8949
olds	-8950
▁See	-8951
▁Stef	-8952
▁wait	-8953
▁phone	-8954
▁Paraly	-8955
▁Norfolk	-8956
▁trouble	-8957
▁stronger	-8958
▁secretary	-8959
▁strongest	-8960
iat	-8961
uma	-8962
cles	-8963
▁Agency	-8964
▁Marvel	-8965
▁raising	-8966
▁alliance	-8967
▁connecting	-8968
▁Confederate	-8969
illo	-8970
weet	-8971
▁161	-8972
▁Tag	-8973
ultan	-8974
▁bare	-8975
▁Craig	-8976
▁veloc	-8977
▁amounts	-8978
▁establishing	-8979
ika	-8980
▁169	-8981
adier	-8982
▁Publ	-8983
▁prove	-8984
▁ceased	-8985
▁turret	-8986
▁marketing	-8987
▁surrendered	-8988
anner	-8989
senal	-8990
▁shield	-8991
▁drivers	-8992
▁Saturday	-8993
▁similarly	-8994
▁Furthermore	-8995
▁Tit	-8996
▁net	-8997
azing	-8998
▁angle	-8999
▁altered	-9000
▁wealthy	-9001
▁permitted	-9002
unch	-9003
aments	-9004
▁lying	-9005
▁blocks	-9006
▁revenue	-9007
▁Paralymp	-9008
▁dissipated	-9009
TA	-9010
orer	-9011
▁Sem	-9012
phony	-9013
▁Lion	-9014
▁Section	-9015
▁exactly	-9016
▁talking	-9017
▁Johnston	-9018
▁confront	-9019
▁exposure	-9020
▁accum	-9021
▁horiz	-9022
▁Albany	-9023
▁Meteor	-9024
▁disagre	-9025
▁component	-9026
▁simultaneously	-9027
isp	-9028
oned	-9029
▁Hugh	-9030
▁bone	-9031
▁sung	-9032
▁Drive	-9033
▁induct	-9034
▁hitting	-9035
▁founding	-9036
▁campaigns	-9037
▁personally	-9038
▁mit	-9039
estyle	-9040
▁steps	-9041
▁Panzer	-9042
▁riders	-9043
ensively	-9044
▁waiting	-9045
▁Franklin	-9046
▁qualified	-9047
▁Convention	-9048
▁113	-9049
▁Sign	-9050
▁poison	-9051
▁signal	-9052
▁triang	-9053
▁Reserve	-9054
▁justice	-9055
ibilities	-9056
▁articles	-9057
▁decisions	-9058
▁stationed	-9059
▁appropriate	-9060
arr	-9061
asts	-9062
itis	-9063
▁Ral	-9064
ifies	-9065
inian	-9066
▁1898	-9067
gomery	-9068
▁Apoll	-9069
▁Where	-9070
▁waste	-9071
▁Hudson	-9072
▁Wonder	-9073
▁gathered	-9074
▁Similarly	-9075
▁Montgomery	-9076
▁originated	-9077
▁Fel	-9078
▁Hob	-9079
▁rib	-9080
▁pace	-9081
▁GameSp	-9082
▁affili	-9083
▁devast	-9084
cription	-9085
▁cutting	-9086
▁matters	-9087
▁ongoing	-9088
▁volumes	-9089
▁Jennings	-9090
▁audition	-9091
▁Professor	-9092
▁discovers	-9093
▁publications	-9094
erk	-9095
sea	-9096
▁Lad	-9097
▁Hann	-9098
▁wore	-9099
ecution	-9100
▁initiated	-9101
▁Enterprise	-9102
rant	-9103
▁Fif	-9104
▁Rand	-9105
▁danc	-9106
▁funny	-9107
▁looks	-9108
▁aggreg	-9109
▁spaces	-9110
▁earthqu	-9111
▁emphasis	-9112
▁promotional	-9113
▁Vis	-9114
eding	-9115
▁Boat	-9116
▁forg	-9117
▁stick	-9118
▁slaves	-9119
▁apartment	-9120
▁sovereign	-9121
▁questioned	-9122
eron	-9123
▁Kal	-9124
uzzle	-9125
▁fewer	-9126
▁sharp	-9127
▁listen	-9128
▁phrase	-9129
▁Administration	-9130
irty	-9131
quir	-9132
▁Amb	-9133
rings	-9134
▁1896	-9135
▁Todd	-9136
▁hook	-9137
earing	-9138
▁edited	-9139
▁Together	-9140
▁defending	-9141
OT	-9142
ía	-9143
▁forth	-9144
▁acoustic	-9145
▁magazines	-9146
▁155	-9147
▁Set	-9148
▁Tan	-9149
onium	-9150
▁Hubb	-9151
▁cruc	-9152
▁saved	-9153
▁Duncan	-9154
▁sitting	-9155
▁hypothes	-9156
▁compliment	-9157
▁investigate	-9158
lon	-9159
▁Mack	-9160
▁clin	-9161
▁Turner	-9162
▁mental	-9163
▁profit	-9164
▁refere	-9165
▁Bernard	-9166
▁swimming	-9167
▁continuous	-9168
lah	-9169
▁Marge	-9170
▁summit	-9171
▁flooded	-9172
▁annually	-9173
▁assembly	-9174
▁defences	-9175
▁requires	-9176
▁believing	-9177
col	-9178
irm	-9179
▁BCE	-9180
▁Farm	-9181
▁mane	-9182
▁Afghan	-9183
▁retain	-9184
▁discont	-9185
▁possess	-9186
▁Mitchell	-9187
▁exercise	-9188
▁realized	-9189
▁Hampshire	-9190
▁components	-9191
idal	-9192
▁Eug	-9193
▁Had	-9194
▁Kap	-9195
▁Sib	-9196
▁1850	-9197
▁Patt	-9198
▁sket	-9199
▁bonus	-9200
▁prize	-9201
▁Hawaii	-9202
▁Campbell	-9203
otal	-9204
▁172	-9205
▁Rico	-9206
idency	-9207
▁Andre	-9208
▁Danny	-9209
▁atomic	-9210
▁ranges	-9211
▁varied	-9212
aja	-9213
rov	-9214
▁152	-9215
ospel	-9216
▁Tint	-9217
▁jury	-9218
▁Griff	-9219
▁plain	-9220
▁texts	-9221
▁promin	-9222
▁donated	-9223
▁Queensland	-9224
▁considering	-9225
▁vs	-9226
▁NCAA	-9227
▁erected	-9228
▁Romanian	-9229
▁airfield	-9230
▁attitude	-9231
▁improvement	-9232
▁conservation	-9233
pan	-9234
▁Hem	-9235
▁bay	-9236
▁Nine	-9237
▁Hubbard	-9238
▁dancing	-9239
▁Community	-9240
rastructure	-9241
▁publishing	-9242
avia	-9243
▁tag	-9244
agles	-9245
shore	-9246
▁Diam	-9247
▁scar	-9248
ported	-9249
autical	-9250
▁democr	-9251
▁therap	-9252
▁centers	-9253
▁dischar	-9254
▁Richmond	-9255
▁Outstanding	-9256
▁organisation	-9257
gé	-9258
oda	-9259
▁101	-9260
▁171	-9261
▁scores	-9262
▁Montana	-9263
▁Overall	-9264
▁pictures	-9265
▁traveling	-9266
▁approaching	-9267
▁announcement	-9268
▁reinforcements	-9269
▁Pam	-9270
▁fro	-9271
▁List	-9272
▁Micro	-9273
▁rebels	-9274
▁burning	-9275
▁fantasy	-9276
▁solution	-9277
▁organised	-9278
▁concentrated	-9279
isd	-9280
idae	-9281
▁Gary	-9282
ffield	-9283
▁Those	-9284
▁Season	-9285
elescope	-9286
▁proteins	-9287
▁intersects	-9288
▁plug	-9289
uating	-9290
▁Pierre	-9291
▁mature	-9292
▁amateur	-9293
▁understood	-9294
tz	-9295
ican	-9296
olia	-9297
▁121	-9298
angel	-9299
▁Chen	-9300
▁Gray	-9301
▁salv	-9302
▁sick	-9303
cribed	-9304
▁bones	-9305
▁pretty	-9306
▁Foreign	-9307
▁Protest	-9308
▁discussion	-9309
▁respective	-9310
AC	-9311
▁Dyn	-9312
▁Sony	-9313
ancell	-9314
▁Begin	-9315
▁memor	-9316
▁Cardiff	-9317
▁Victorian	-9318
▁destroyer	-9319
▁theatrical	-9320
▁experimental	-9321
▁Ax	-9322
▁sq	-9323
hard	-9324
mund	-9325
ulty	-9326
allas	-9327
ethel	-9328
▁Oklah	-9329
▁proof	-9330
ivation	-9331
▁exceed	-9332
▁talent	-9333
formation	-9334
▁software	-9335
wa	-9336
odge	-9337
▁Anc	-9338
▁Our	-9339
odore	-9340
▁1899	-9341
▁Harv	-9342
▁beam	-9343
▁users	-9344
▁curren	-9345
▁Edwards	-9346
▁cleared	-9347
▁survival	-9348
▁arrangements	-9349
ean	-9350
ods	-9351
▁DS	-9352
ello	-9353
nels	-9354
▁Cow	-9355
▁Din	-9356
racks	-9357
▁Bach	-9358
▁Laur	-9359
▁zero	-9360
bishop	-9361
etheless	-9362
▁Denmark	-9363
▁patients	-9364
▁reducing	-9365
▁collapsed	-9366
▁investment	-9367
▁songwriter	-9368
WC	-9369
ti	-9370
rint	-9371
▁Div	-9372
itely	-9373
▁brig	-9374
▁happ	-9375
▁Mills	-9376
▁kills	-9377
▁Jonathan	-9378
▁acknowledged	-9379
olan	-9380
▁brill	-9381
▁Village	-9382
iffs	-9383
▁Chem	-9384
▁Half	-9385
▁Link	-9386
▁Rest	-9387
▁sang	-9388
atched	-9389
▁Barry	-9390
▁Obama	-9391
▁chest	-9392
▁ports	-9393
▁Castro	-9394
▁Legend	-9395
▁chapel	-9396
▁garden	-9397
▁mobile	-9398
▁Antonio	-9399
▁Medical	-9400
▁comprom	-9401
▁praising	-9402
▁contribution	-9403
pled	-9404
▁Nav	-9405
▁nat	-9406
▁Yanke	-9407
▁danger	-9408
▁movies	-9409
▁bowling	-9410
▁external	-9411
▁Sheffield	-9412
▁radiation	-9413
agg	-9414
anian	-9415
▁1895	-9416
ennium	-9417
▁Abbey	-9418
▁wheel	-9419
▁Tintin	-9420
▁markets	-9421
▁printed	-9422
▁uranium	-9423
▁attending	-9424
▁conscious	-9425
▁landscape	-9426
▁reduction	-9427
▁programming	-9428
rawn	-9429
asant	-9430
icles	-9431
▁coff	-9432
▁layer	-9433
▁Harper	-9434
▁Official	-9435
▁Oklahoma	-9436
▁counterp	-9437
▁writings	-9438
▁evacuated	-9439
▁aggressive	-9440
▁consistent	-9441
▁exclusively	-9442
▁architectural	-9443
ario	-9444
warf	-9445
▁mac	-9446
▁unw	-9447
eared	-9448
▁Type	-9449
▁rede	-9450
monton	-9451
▁slave	-9452
▁ruling	-9453
▁tenure	-9454
▁visits	-9455
▁Liberal	-9456
▁Mission	-9457
▁bearing	-9458
▁exclusive	-9459
▁friendship	-9460
uki	-9461
▁caps	-9462
▁soph	-9463
▁backed	-9464
▁burned	-9465
▁connect	-9466
▁Edmonton	-9467
▁Argentina	-9468
▁Yorkshire	-9469
OS	-9470
▁Gate	-9471
igible	-9472
▁eating	-9473
▁merely	-9474
▁Universal	-9475
▁champions	-9476
▁competing	-9477
▁supplement	-9478
sk	-9479
bal	-9480
▁Kurt	-9481
▁cant	-9482
▁Olivia	-9483
▁cousin	-9484
▁shares	-9485
▁alcohol	-9486
▁putting	-9487
▁developers	-9488
▁indicating	-9489
▁advertising	-9490
aux	-9491
oven	-9492
▁350	-9493
▁Tob	-9494
▁eval	-9495
▁morph	-9496
ologies	-9497
▁recept	-9498
▁arguing	-9499
mn	-9500
pine	-9501
▁163	-9502
▁Tow	-9503
aders	-9504
where	-9505
▁1861	-9506
▁Pink	-9507
▁Poll	-9508
▁push	-9509
▁beats	-9510
▁charity	-9511
▁confron	-9512
▁walking	-9513
▁Heritage	-9514
▁medicine	-9515
▁aftermath	-9516
▁guitarist	-9517
▁Cit	-9518
enesis	-9519
itively	-9520
▁Monroe	-9521
▁Natural	-9522
mith	-9523
▁Nas	-9524
ashes	-9525
▁Bald	-9526
▁fram	-9527
▁tubes	-9528
▁Rights	-9529
▁armies	-9530
▁unless	-9531
▁terrain	-9532
▁unclear	-9533
▁competitive	-9534
amas	-9535
▁aro	-9536
ested	-9537
▁1889	-9538
▁Bird	-9539
▁Susan	-9540
amental	-9541
▁Apollo	-9542
▁Friday	-9543
▁riding	-9544
▁failing	-9545
▁photographs	-9546
hyl	-9547
iden	-9548
▁Tai	-9549
ensed	-9550
venth	-9551
▁Gene	-9552
▁Next	-9553
▁isot	-9554
▁navy	-9555
▁Ralph	-9556
▁Ernest	-9557
▁decide	-9558
▁assembled	-9559
▁accompanying	-9560
▁Wol	-9561
▁1894	-9562
▁Mayor	-9563
▁Years	-9564
▁grave	-9565
▁loved	-9566
▁Davies	-9567
▁endors	-9568
▁golden	-9569
▁parent	-9570
▁tested	-9571
▁carries	-9572
▁casting	-9573
▁challenged	-9574
▁profession	-9575
▁withdrawal	-9576
▁interpreted	-9577
ige	-9578
▁NO	-9579
ieth	-9580
oons	-9581
▁spoken	-9582
▁shifted	-9583
▁duration	-9584
▁supplied	-9585
▁thirteen	-9586
▁Catherine	-9587
▁conceived	-9588
▁considers	-9589
▁106	-9590
▁167	-9591
▁McM	-9592
▁hosp	-9593
apolis	-9594
inental	-9595
▁Parsons	-9596
▁descent	-9597
ationally	-9598
▁Personal	-9599
▁Services	-9600
abe	-9601
pent	-9602
▁NATO	-9603
▁Books	-9604
▁Saxon	-9605
▁craft	-9606
▁Credits	-9607
▁Finally	-9608
▁heading	-9609
▁replied	-9610
▁shorter	-9611
atropical	-9612
▁strengthened	-9613
▁Neb	-9614
▁web	-9615
▁Cham	-9616
▁exha	-9617
▁gods	-9618
▁memb	-9619
amount	-9620
ingham	-9621
▁Prize	-9622
▁Studio	-9623
▁aerial	-9624
▁burial	-9625
▁hybrid	-9626
▁suspic	-9627
▁victim	-9628
▁advised	-9629
▁factory	-9630
▁Constant	-9631
▁commanders	-9632
▁succession	-9633
ye	-9634
cru	-9635
▁CR	-9636
▁1892	-9637
▁Magn	-9638
▁dece	-9639
▁rings	-9640
▁Charts	-9641
▁Donald	-9642
▁dubbed	-9643
▁boilers	-9644
▁columns	-9645
▁underwent	-9646
▁Transportation	-9647
gor	-9648
join	-9649
▁sel	-9650
ulous	-9651
usive	-9652
▁renov	-9653
▁propag	-9654
▁streak	-9655
▁Phoenix	-9656
▁fourteen	-9657
▁identify	-9658
▁opportunities	-9659
acc	-9660
pha	-9661
▁112	-9662
▁Mem	-9663
▁fate	-9664
▁mini	-9665
▁regime	-9666
▁tactics	-9667
▁practical	-9668
▁legislature	-9669
rac	-9670
aron	-9671
▁Dram	-9672
▁Stri	-9673
▁dogs	-9674
▁Bright	-9675
▁predict	-9676
▁Armenian	-9677
▁cyclones	-9678
▁displaced	-9679
▁interviews	-9680
▁reinforced	-9681
▁extratropical	-9682
▁sad	-9683
eston	-9684
▁debt	-9685
atical	-9686
▁faces	-9687
▁banned	-9688
▁sending	-9689
▁certainly	-9690
▁civilians	-9691
▁confusion	-9692
▁inclusion	-9693
▁Operations	-9694
▁artificial	-9695
▁commentary	-9696
▁indigenous	-9697
▁AP	-9698
▁ERA	-9699
▁gay	-9700
▁Emmy	-9701
▁demo	-9702
▁Burke	-9703
▁abuse	-9704
▁talks	-9705
▁Energy	-9706
▁circle	-9707
▁expert	-9708
▁Bradley	-9709
▁overwhel	-9710
▁referring	-9711
lete	-9712
▁Sud	-9713
▁Jama	-9714
▁Mand	-9715
unning	-9716
▁shale	-9717
▁Trophy	-9718
▁drafted	-9719
▁attorney	-9720
▁educational	-9721
▁representatives	-9722
▁Rena	-9723
▁cuts	-9724
▁disb	-9725
▁garn	-9726
▁prev	-9727
▁guide	-9728
▁maneu	-9729
▁Hebrew	-9730
▁Classic	-9731
▁insects	-9732
▁trading	-9733
▁valuable	-9734
▁velocity	-9735
▁frequency	-9736
▁provincial	-9737
boy	-9738
cel	-9739
tes	-9740
onds	-9741
▁Maj	-9742
▁Sue	-9743
▁scr	-9744
agger	-9745
▁Gang	-9746
▁Maya	-9747
▁Tales	-9748
▁Mother	-9749
▁ballad	-9750
▁reveal	-9751
▁wonder	-9752
▁displays	-9753
▁translated	-9754
hist	-9755
place	-9756
▁1897	-9757
▁Phys	-9758
▁Prop	-9759
▁sleep	-9760
▁smoke	-9761
▁toler	-9762
▁dispers	-9763
▁extending	-9764
▁AA	-9765
ista	-9766
olen	-9767
▁tip	-9768
rising	-9769
▁Henri	-9770
▁Reagan	-9771
soft	-9772
▁Lock	-9773
▁clock	-9774
▁humor	-9775
▁pairs	-9776
▁Allies	-9777
▁exists	-9778
▁conspir	-9779
▁revised	-9780
▁nautical	-9781
▁portrayal	-9782
▁maintaining	-9783
▁participation	-9784
uis	-9785
eyer	-9786
hill	-9787
rene	-9788
▁Lat	-9789
▁Nord	-9790
master	-9791
▁redes	-9792
▁Market	-9793
▁Defense	-9794
▁hostile	-9795
▁Ic	-9796
avor	-9797
onica	-9798
▁Howe	-9799
▁Minor	-9800
▁housed	-9801
▁salary	-9802
▁hydrogen	-9803
▁identical	-9804
▁approaches	-9805
▁challenges	-9806
▁AS	-9807
▁bull	-9808
▁dict	-9809
▁earn	-9810
▁kilog	-9811
▁labour	-9812
▁tonnes	-9813
▁reviewed	-9814
▁governments	-9815
▁Jup	-9816
▁Pin	-9817
heric	-9818
▁Deep	-9819
▁Quar	-9820
atever	-9821
▁Titan	-9822
▁Dallas	-9823
▁ticket	-9824
▁congreg	-9825
▁tension	-9826
▁Cultural	-9827
▁wrestling	-9828
▁concurrent	-9829
▁productions	-9830
▁concentration	-9831
▁characteristic	-9832
▁infrastructure	-9833
aze	-9834
▁Steel	-9835
legraph	-9836
▁Sultan	-9837
▁airline	-9838
▁Training	-9839
▁branches	-9840
▁millimet	-9841
▁recovery	-9842
▁daughters	-9843
▁decorated	-9844
ng	-9845
abs	-9846
▁CBS	-9847
▁Cer	-9848
▁cad	-9849
inces	-9850
izard	-9851
▁maps	-9852
▁paras	-9853
▁unlik	-9854
▁persons	-9855
▁Electric	-9856
▁similarities	-9857
ebe	-9858
irts	-9859
▁Osc	-9860
▁Toy	-9861
▁Zero	-9862
▁ferry	-9863
▁meter	-9864
▁parks	-9865
isition	-9866
▁Orange	-9867
▁supern	-9868
▁patient	-9869
▁planets	-9870
▁orchestra	-9871
▁recurring	-9872
▁universal	-9873
▁employment	-9874
▁presentation	-9875
▁PS	-9876
▁Tu	-9877
▁Fund	-9878
▁Bobby	-9879
▁Shiva	-9880
▁crops	-9881
▁output	-9882
▁Product	-9883
▁charted	-9884
▁thunder	-9885
▁Brothers	-9886
▁Formation	-9887
▁proceeded	-9888
oa	-9889
hous	-9890
▁108	-9891
▁Hope	-9892
▁Karl	-9893
▁cock	-9894
▁wish	-9895
▁Woods	-9896
▁queen	-9897
▁voices	-9898
▁courses	-9899
▁physics	-9900
▁rescued	-9901
▁Chronicle	-9902
▁efficient	-9903
▁commenting	-9904
nam	-9905
rob	-9906
ugg	-9907
▁Nad	-9908
▁Tax	-9909
▁hem	-9910
imony	-9911
▁ward	-9912
▁Break	-9913
▁raids	-9914
▁steep	-9915
▁jurisd	-9916
▁lawyer	-9917
▁voyage	-9918
▁Normandy	-9919
▁Senators	-9920
▁Aftermath	-9921
▁legislative	-9922
▁⁄	-9923
emen	-9924
▁lie	-9925
ansen	-9926
▁Luke	-9927
▁rect	-9928
▁Rogers	-9929
▁autumn	-9930
▁Cricket	-9931
▁Tribune	-9932
▁arrives	-9933
▁dressed	-9934
▁extinct	-9935
▁harbour	-9936
▁pitcher	-9937
▁sixteen	-9938
▁Beginning	-9939
▁estimates	-9940
▁connections	-9941
▁territorial	-9942
▁Da	-9943
inson	-9944
▁fill	-9945
▁penet	-9946
▁Father	-9947
▁learns	-9948
▁switch	-9949
▁toured	-9950
▁Harvard	-9951
▁constitutional	-9952
aco	-9953
▁Any	-9954
▁Tig	-9955
birds	-9956
▁Shin	-9957
▁cash	-9958
▁Wells	-9959
▁juven	-9960
▁ratio	-9961
▁weigh	-9962
terbury	-9963
▁myster	-9964
▁Arsenal	-9965
▁protests	-9966
▁commenced	-9967
▁proposals	-9968
▁VI	-9969
▁Eis	-9970
esley	-9971
▁Owen	-9972
▁mush	-9973
aching	-9974
▁Eight	-9975
▁Geoff	-9976
▁Usher	-9977
▁Labour	-9978
▁Edition	-9979
▁handled	-9980
▁prosper	-9981
▁prisoner	-9982
▁southeastern	-9983
▁μ	-9984
cuss	-9985
▁Eve	-9986
▁Exper	-9987
▁Waters	-9988
▁accord	-9989
▁bomber	-9990
▁medals	-9991
▁reward	-9992
▁Defence	-9993
▁passion	-9994
▁shoulder	-9995
▁rebellion	-9996
▁Canterbury	-9997
▁destroying	-9998
imp	-9999
nal	-10000
odox	-10001
uits	-10002
▁Sox	-10003
▁Von	-10004
▁ing	-10005
▁Priv	-10006
▁fold	-10007
▁Falls	-10008
▁uncon	-10009
▁Hutton	-10010
▁distant	-10011
▁rivalry	-10012
▁confidence	-10013
▁Performance	-10014
opp	-10015
▁Abd	-10016
umped	-10017
▁Sout	-10018
▁heir	-10019
▁tort	-10020
▁drain	-10021
▁Hughes	-10022
▁conflic	-10023
▁principle	-10024
▁scattered	-10025
én	-10026
ét	-10027
▁AC	-10028
aton	-10029
ulus	-10030
itate	-10031
▁Lang	-10032
▁furn	-10033
▁drink	-10034
▁innoc	-10035
▁spawn	-10036
▁upset	-10037
▁metric	-10038
▁Jupiter	-10039
▁liberal	-10040
▁Malaysia	-10041
▁eventual	-10042
▁targeted	-10043
▁accommodate	-10044
▁representation	-10045
▁spac	-10046
▁Still	-10047
▁stuff	-10048
▁Herald	-10049
▁airing	-10050
▁census	-10051
▁indeed	-10052
▁divorce	-10053
▁enthusi	-10054
▁radical	-10055
▁Cemetery	-10056
▁drinking	-10057
▁lighting	-10058
▁proclaim	-10059
▁warnings	-10060
▁Lt	-10061
▁Deb	-10062
▁Garc	-10063
▁moon	-10064
▁Local	-10065
▁Irving	-10066
▁ashore	-10067
▁borrow	-10068
▁merged	-10069
▁Hendrix	-10070
▁lasting	-10071
▁sentence	-10072
▁preparing	-10073
vis	-10074
▁135	-10075
▁Ref	-10076
▁fee	-10077
aping	-10078
▁1891	-10079
▁Cany	-10080
▁Cost	-10081
▁conj	-10082
▁fulf	-10083
▁worn	-10084
▁Stars	-10085
▁Start	-10086
landers	-10087
lington	-10088
▁Gallery	-10089
▁graduate	-10090
▁relatives	-10091
▁Wellington	-10092
▁categories	-10093
▁disturbance	-10094
ilus	-10095
▁109	-10096
▁Rup	-10097
▁Beck	-10098
▁Face	-10099
itious	-10100
▁Beaut	-10101
▁Leigh	-10102
▁legit	-10103
▁crimes	-10104
▁linear	-10105
▁reforms	-10106
▁reorgan	-10107
▁Broadcast	-10108
▁statements	-10109
▁Scientology	-10110
▁agriculture	-10111
osy	-10112
▁Ni	-10113
▁Wor	-10114
▁Prix	-10115
▁gene	-10116
▁sulf	-10117
▁valid	-10118
▁Arnold	-10119
▁diverse	-10120
▁Province	-10121
▁potentially	-10122
▁transported	-10123
▁Ori	-10124
▁vig	-10125
istent	-10126
▁tooth	-10127
▁Quebec	-10128
▁batted	-10129
▁Belgian	-10130
▁emotion	-10131
▁shallow	-10132
▁brilliant	-10133
▁cathedral	-10134
bit	-10135
▁Ins	-10136
▁Ted	-10137
▁Tel	-10138
▁quad	-10139
▁Globe	-10140
iciency	-10141
▁clothes	-10142
▁locally	-10143
▁commanding	-10144
▁principles	-10145
▁statistics	-10146
▁Description	-10147
III	-10148
olar	-10149
uded	-10150
▁Tak	-10151
▁Yam	-10152
▁deeply	-10153
▁Banksia	-10154
abilities	-10155
▁Greatest	-10156
▁Security	-10157
▁consolid	-10158
▁translation	-10159
ublin	-10160
▁admin	-10161
▁rugby	-10162
▁fisher	-10163
▁funded	-10164
▁numbered	-10165
▁unlikely	-10166
▁magnitude	-10167
ashi	-10168
▁Rub	-10169
merce	-10170
▁drag	-10171
▁culmin	-10172
▁Finland	-10173
▁Without	-10174
▁evident	-10175
atem	-10176
olly	-10177
▁220	-10178
▁jet	-10179
▁Clar	-10180
▁Roth	-10181
levard	-10182
pected	-10183
▁dense	-10184
▁rocks	-10185
▁Yellow	-10186
▁cannon	-10187
▁Destiny	-10188
▁Churchill	-10189
ocal	-10190
uras	-10191
acles	-10192
atine	-10193
▁Kill	-10194
▁Stat	-10195
▁fasc	-10196
▁outd	-10197
▁Woman	-10198
▁cable	-10199
▁Canyon	-10200
▁Madrid	-10201
▁Peters	-10202
restrial	-10203
▁Gardner	-10204
▁imagery	-10205
▁traditions	-10206
▁researchers	-10207
▁intervention	-10208
▁Bh	-10209
oker	-10210
uman	-10211
▁Sid	-10212
▁lad	-10213
▁conce	-10214
▁heritage	-10215
▁rendered	-10216
▁reactions	-10217
▁membership	-10218
▁settlements	-10219
▁significance	-10220
▁Ah	-10221
rien	-10222
umph	-10223
▁Has	-10224
eness	-10225
▁1800	-10226
▁judg	-10227
▁tube	-10228
▁blues	-10229
▁deriv	-10230
▁Israeli	-10231
▁dealing	-10232
▁marking	-10233
▁accurate	-10234
▁batteries	-10235
nt	-10236
orge	-10237
vant	-10238
▁Sic	-10239
ellar	-10240
▁1000	-10241
▁Isaac	-10242
▁Liter	-10243
▁tribe	-10244
▁Darwin	-10245
▁lights	-10246
▁revival	-10247
▁volcano	-10248
▁editions	-10249
▁garnered	-10250
▁relocated	-10251
▁sponsored	-10252
▁qualifying	-10253
hin	-10254
▁Hok	-10255
hears	-10256
▁hind	-10257
▁leaf	-10258
▁Watch	-10259
▁noise	-10260
▁polar	-10261
▁Legisl	-10262
▁Living	-10263
▁parody	-10264
▁trough	-10265
▁Atlanta	-10266
▁Madison	-10267
▁cabinet	-10268
▁warfare	-10269
▁Communist	-10270
▁corporate	-10271
▁competitions	-10272
car	-10273
▁JT	-10274
▁Got	-10275
▁Hur	-10276
otion	-10277
▁Brid	-10278
▁Clay	-10279
▁cens	-10280
alling	-10281
▁Strong	-10282
▁Pictures	-10283
▁impression	-10284
▁id	-10285
▁Wii	-10286
erver	-10287
ocket	-10288
onald	-10289
piece	-10290
raits	-10291
▁Bark	-10292
▁Chet	-10293
▁unve	-10294
▁navig	-10295
▁decomp	-10296
▁blocked	-10297
▁holiday	-10298
▁Jefferson	-10299
oom	-10300
inge	-10301
rift	-10302
asaki	-10303
▁Upper	-10304
▁Gothic	-10305
▁Guards	-10306
▁explicit	-10307
▁touchdowns	-10308
mo	-10309
aman	-10310
anto	-10311
rior	-10312
▁Meth	-10313
▁Winn	-10314
▁glac	-10315
▁Grade	-10316
▁drown	-10317
porting	-10318
▁barrel	-10319
▁beaten	-10320
▁colors	-10321
▁melody	-10322
▁racial	-10323
▁Buffalo	-10324
▁enforce	-10325
▁minority	-10326
▁suddenly	-10327
▁intermedi	-10328
▁Fu	-10329
▁NAS	-10330
▁lung	-10331
▁Lloyd	-10332
▁Snake	-10333
▁Spart	-10334
▁helps	-10335
▁noble	-10336
▁assert	-10337
▁Barbara	-10338
▁Officer	-10339
▁equally	-10340
▁Napoleon	-10341
▁Nicholas	-10342
▁lifetime	-10343
▁petition	-10344
▁extensively	-10345
uil	-10346
▁RP	-10347
▁Vo	-10348
eded	-10349
▁Opp	-10350
▁aft	-10351
andom	-10352
opard	-10353
oples	-10354
▁ages	-10355
▁mood	-10356
▁manip	-10357
▁Alaska	-10358
▁bishop	-10359
▁convey	-10360
▁debris	-10361
▁statue	-10362
▁Marines	-10363
▁flowers	-10364
▁escorted	-10365
▁infection	-10366
▁impressive	-10367
▁Conservation	-10368
▁requirements	-10369
ugu	-10370
osph	-10371
▁cyl	-10372
▁Emer	-10373
▁Joint	-10374
▁laugh	-10375
▁taxes	-10376
▁gender	-10377
▁sailing	-10378
▁grossing	-10379
▁Brazilian	-10380
lock	-10381
icing	-10382
irect	-10383
▁Past	-10384
▁fest	-10385
usalem	-10386
▁uncle	-10387
▁Stuart	-10388
▁absent	-10389
▁explore	-10390
▁opposing	-10391
▁Cathedral	-10392
▁essentially	-10393
ahl	-10394
oca	-10395
▁978	-10396
▁Eth	-10397
▁Beth	-10398
▁Hait	-10399
▁coat	-10400
▁dust	-10401
▁posts	-10402
itarian	-10403
▁pursuit	-10404
▁disorder	-10405
▁pregnant	-10406
▁prototype	-10407
▁au	-10408
▁Nev	-10409
▁Movie	-10410
▁assum	-10411
▁sings	-10412
▁trick	-10413
▁Dublin	-10414
▁fairly	-10415
▁Holland	-10416
▁options	-10417
▁′	-10418
akh	-10419
omes	-10420
▁240	-10421
▁Joy	-10422
hurst	-10423
▁Neil	-10424
▁fame	-10425
▁fier	-10426
▁Leeds	-10427
▁Place	-10428
▁stops	-10429
▁Æthel	-10430
▁Harold	-10431
▁Jerusalem	-10432
▁withdrawn	-10433
▁vulnerable	-10434
▁anticipated	-10435
▁illustrated	-10436
▁implemented	-10437
▁Rif	-10438
▁ecc	-10439
▁Full	-10440
▁Malt	-10441
▁Tree	-10442
▁YouT	-10443
igious	-10444
▁Based	-10445
▁inhab	-10446
▁virus	-10447
▁tasked	-10448
ellation	-10449
▁Charlotte	-10450
▁communist	-10451
▁followers	-10452
▁Laboratory	-10453
▁laboratory	-10454
▁proportion	-10455
▁observation	-10456
▁communications	-10457
sts	-10458
othy	-10459
avian	-10460
▁FIFA	-10461
▁Tall	-10462
▁dimin	-10463
▁taste	-10464
▁Gibson	-10465
▁Invest	-10466
▁answer	-10467
▁manage	-10468
▁Cameron	-10469
▁YouTube	-10470
▁persuaded	-10471
▁platforms	-10472
asm	-10473
erts	-10474
▁153	-10475
▁Lex	-10476
▁nit	-10477
▁rub	-10478
itime	-10479
▁JTWC	-10480
▁Mega	-10481
▁Mess	-10482
▁Until	-10483
▁stern	-10484
▁liquid	-10485
▁naming	-10486
▁Iceland	-10487
▁strikes	-10488
▁sustain	-10489
▁AT	-10490
▁Hanc	-10491
▁Prim	-10492
▁wolf	-10493
lights	-10494
▁Bible	-10495
▁Judge	-10496
▁Lower	-10497
▁shock	-10498
▁Junior	-10499
▁Fleming	-10500
▁closure	-10501
▁devoted	-10502
▁renewed	-10503
▁unexpected	-10504
▁₹	-10505
ridor	-10506
▁summ	-10507
▁tale	-10508
▁dying	-10509
▁fires	-10510
▁flows	-10511
▁Ground	-10512
▁beauty	-10513
▁superst	-10514
▁advertis	-10515
▁requiring	-10516
▁Sug	-10517
▁Ches	-10518
▁Jake	-10519
▁Scar	-10520
▁Spir	-10521
▁Parks	-10522
▁decis	-10523
▁playable	-10524
▁signature	-10525
▁Env	-10526
▁Liz	-10527
▁Lud	-10528
▁pel	-10529
inery	-10530
▁Alam	-10531
▁Craw	-10532
▁ramp	-10533
wright	-10534
▁Metac	-10535
▁Trade	-10536
▁portr	-10537
▁recon	-10538
▁sweet	-10539
▁Collins	-10540
▁receives	-10541
▁attraction	-10542
eto	-10543
▁DJ	-10544
▁Ko	-10545
▁154	-10546
agher	-10547
▁Rhys	-10548
achute	-10549
▁Syria	-10550
▁Tourn	-10551
▁trunk	-10552
▁altitude	-10553
▁decrease	-10554
▁portrait	-10555
▁Champions	-10556
▁bombardment	-10557
▁considerably	-10558
bu	-10559
bow	-10560
▁1864	-10561
▁Bert	-10562
▁Celt	-10563
▁Salt	-10564
▁Surv	-10565
▁Vers	-10566
▁Rivers	-10567
▁enabled	-10568
▁provinces	-10569
▁surprised	-10570
auc	-10571
▁Gas	-10572
▁Las	-10573
▁Pil	-10574
▁Sac	-10575
arest	-10576
isons	-10577
▁Bath	-10578
▁Flow	-10579
▁pump	-10580
▁swit	-10581
ulsion	-10582
ocation	-10583
▁restore	-10584
▁feathers	-10585
▁Adventure	-10586
▁Microsoft	-10587
▁explaining	-10588
▁CO	-10589
▁Emma	-10590
▁Fran	-10591
▁Must	-10592
▁embr	-10593
▁Eagle	-10594
▁Venus	-10595
▁dozen	-10596
▁mouse	-10597
▁skill	-10598
ometric	-10599
▁Comics	-10600
▁breaks	-10601
▁Hancock	-10602
▁faculty	-10603
urricanes	-10604
▁involves	-10605
▁sentenced	-10606
▁suspected	-10607
▁torpedoes	-10608
▁photography	-10609
hu	-10610
és	-10611
▁Il	-10612
utor	-10613
▁Edin	-10614
▁Isle	-10615
▁Skin	-10616
▁Brand	-10617
▁oblig	-10618
▁tours	-10619
▁toxic	-10620
▁truly	-10621
▁Rupert	-10622
▁dislik	-10623
▁Weather	-10624
▁beating	-10625
▁educated	-10626
▁quarters	-10627
▁diplomatic	-10628
▁girlfriend	-10629
▁imprisoned	-10630
▁separation	-10631
hl	-10632
occ	-10633
oded	-10634
seud	-10635
tery	-10636
▁102	-10637
reens	-10638
▁genu	-10639
▁aside	-10640
▁metre	-10641
▁Chapel	-10642
▁Impact	-10643
▁Nature	-10644
▁clouds	-10645
▁empire	-10646
▁pursued	-10647
▁advancing	-10648
▁occasional	-10649
80	-10650
▁eld	-10651
point	-10652
▁Tang	-10653
▁Baron	-10654
▁Scots	-10655
▁formula	-10656
▁knocked	-10657
▁sinking	-10658
▁relation	-10659
▁predators	-10660
▁authorized	-10661
▁documented	-10662
▁examination	-10663
▁grandfather	-10664
haw	-10665
▁Fat	-10666
▁dim	-10667
▁nut	-10668
▁pap	-10669
ipher	-10670
▁Bour	-10671
▁Evil	-10672
▁aest	-10673
▁cook	-10674
iggins	-10675
▁conven	-10676
▁rejoin	-10677
▁crashed	-10678
▁depicts	-10679
▁Attorney	-10680
▁fortress	-10681
▁politicians	-10682
▁collaborated	-10683
wing	-10684
▁Jose	-10685
▁Hergé	-10686
▁chase	-10687
▁dread	-10688
▁infer	-10689
▁sword	-10690
▁thrown	-10691
▁timber	-10692
▁bacteria	-10693
▁chemistry	-10694
▁occurring	-10695
▁collections	-10696
aku	-10697
iper	-10698
amine	-10699
▁Orle	-10700
▁Nolan	-10701
▁Spider	-10702
▁Windows	-10703
▁gaining	-10704
▁handling	-10705
▁resolved	-10706
▁theories	-10707
iang	-10708
ilda	-10709
▁Dub	-10710
▁Sig	-10711
▁Tyr	-10712
geant	-10713
ricts	-10714
▁Bapt	-10715
▁Kyle	-10716
▁hole	-10717
▁kidn	-10718
▁Prest	-10719
▁Starr	-10720
▁orange	-10721
▁Friedrich	-10722
▁organisms	-10723
▁highlighted	-10724
▁NS	-10725
▁RI	-10726
ovak	-10727
agers	-10728
▁Ages	-10729
▁Cond	-10730
▁Cycl	-10731
▁Fish	-10732
▁fron	-10733
▁Maine	-10734
▁eagle	-10735
▁error	-10736
▁rains	-10737
▁rocket	-10738
▁Alberta	-10739
▁imposed	-10740
▁mixture	-10741
▁veteran	-10742
▁conquest	-10743
▁squadrons	-10744
▁boundaries	-10745
▁concerning	-10746
▁suspension	-10747
cott	-10748
▁Raf	-10749
uters	-10750
▁mate	-10751
iously	-10752
▁Ellis	-10753
▁Larry	-10754
▁rever	-10755
▁Fisher	-10756
▁beneath	-10757
▁contend	-10758
▁produces	-10759
▁studying	-10760
▁elaborate	-10761
▁variation	-10762
▁conversation	-10763
▁MI	-10764
▁Rio	-10765
▁Chair	-10766
▁Sweet	-10767
▁apply	-10768
▁genes	-10769
▁ruler	-10770
minster	-10771
▁Austin	-10772
▁Guatem	-10773
▁feared	-10774
▁Affairs	-10775
▁beliefs	-10776
▁tracked	-10777
▁compound	-10778
▁directing	-10779
▁Yugoslavia	-10780
▁constantly	-10781
▁162	-10782
▁Jin	-10783
▁Jur	-10784
▁Voy	-10785
adesh	-10786
▁1865	-10787
▁Verm	-10788
▁atop	-10789
▁infl	-10790
▁knee	-10791
umbered	-10792
▁Claire	-10793
▁oriented	-10794
▁interaction	-10795
▁Metropolitan	-10796
eda	-10797
▁Wu	-10798
ulum	-10799
▁Equ	-10800
▁Fern	-10801
▁Sans	-10802
▁root	-10803
▁Winds	-10804
▁empty	-10805
▁cinema	-10806
▁handle	-10807
▁Vincent	-10808
▁Yankees	-10809
▁varying	-10810
▁inherited	-10811
▁sentiment	-10812
▁biological	-10813
▁complement	-10814
▁earthquake	-10815
▁citizenship	-10816
no	-10817
vet	-10818
▁Mix	-10819
▁Nebr	-10820
artime	-10821
▁Jerry	-10822
▁urged	-10823
▁Boeing	-10824
▁sharks	-10825
▁compiled	-10826
▁horizont	-10827
▁humanity	-10828
▁Northwest	-10829
▁battlecru	-10830
▁contracts	-10831
▁processes	-10832
▁travelling	-10833
▁Meteorological	-10834
izer	-10835
▁Bud	-10836
▁Mond	-10837
▁wished	-10838
▁Century	-10839
▁monastery	-10840
▁traditionally	-10841
eras	-10842
fish	-10843
▁sav	-10844
onian	-10845
▁Bomb	-10846
▁Room	-10847
boards	-10848
▁Oscar	-10849
▁doors	-10850
▁prest	-10851
▁Nebraska	-10852
▁Executive	-10853
▁reconstruction	-10854
▁UE	-10855
▁FBI	-10856
▁urg	-10857
rooms	-10858
▁Hold	-10859
▁Poly	-10860
▁flex	-10861
▁ties	-10862
▁bears	-10863
▁blind	-10864
▁Direct	-10865
▁entert	-10866
▁embarked	-10867
▁Boulevard	-10868
▁experiments	-10869
▁Organization	-10870
▁participants	-10871
▁manufacturing	-10872
ioc	-10873
beat	-10874
feld	-10875
odon	-10876
stown	-10877
▁Case	-10878
▁Joan	-10879
▁cosm	-10880
ampton	-10881
reated	-10882
▁hills	-10883
▁vital	-10884
▁Hunter	-10885
▁Shield	-10886
▁stretch	-10887
▁threats	-10888
▁disappeared	-10889
gett	-10890
▁Sin	-10891
▁lib	-10892
encer	-10893
▁Mind	-10894
▁nerv	-10895
▁tune	-10896
▁Plant	-10897
▁Edmund	-10898
▁stolen	-10899
▁Members	-10900
▁devices	-10901
▁drummer	-10902
▁lacking	-10903
▁leagues	-10904
▁thereby	-10905
▁variable	-10906
▁Henderson	-10907
▁discontin	-10908
▁watershed	-10909
▁Protestant	-10910
▁accessible	-10911
▁Environment	-10912
mel	-10913
raz	-10914
elli	-10915
odia	-10916
▁114	-10917
▁Cad	-10918
▁Jain	-10919
▁Pete	-10920
▁Pearl	-10921
▁Terry	-10922
▁Guinea	-10923
▁cattle	-10924
▁invaded	-10925
▁Portugues	-10926
▁virtually	-10927
▁volunteers	-10928
▁JNA	-10929
aters	-10930
▁1876	-10931
▁Mong	-10932
▁Vern	-10933
▁seas	-10934
ulates	-10935
▁hopes	-10936
▁Thames	-10937
▁quoted	-10938
▁Crystal	-10939
▁thunderstorm	-10940
Hg	-10941
ür	-10942
▁Code	-10943
▁acre	-10944
▁fert	-10945
▁mask	-10946
▁breeds	-10947
▁capturing	-10948
▁Portuguese	-10949
▁Springfield	-10950
▁celebration	-10951
▁accidentally	-10952
▁restrictions	-10953
igs	-10954
net	-10955
▁ol	-10956
abet	-10957
cock	-10958
▁Esc	-10959
okane	-10960
▁1863	-10961
▁Chel	-10962
▁Wilf	-10963
▁fant	-10964
▁forb	-10965
▁stim	-10966
ochond	-10967
▁Actor	-10968
▁Nathan	-10969
▁Others	-10970
▁priest	-10971
▁sacrif	-10972
▁teammate	-10973
▁arguments	-10974
▁confident	-10975
▁weakening	-10976
▁Pap	-10977
▁guy	-10978
▁grap	-10979
▁pige	-10980
▁wire	-10981
▁Taiwan	-10982
▁organic	-10983
▁canceled	-10984
▁rational	-10985
▁comprehens	-10986
▁applications	-10987
▁commercially	-10988
▁ib	-10989
iman	-10990
▁126	-10991
▁Vic	-10992
▁odd	-10993
▁Mall	-10994
▁Take	-10995
▁lion	-10996
▁witch	-10997
entieth	-10998
▁butter	-10999
▁cotton	-11000
▁rivals	-11001
▁Orleans	-11002
▁cemetery	-11003
▁murdered	-11004
▁Edinburgh	-11005
▁Territory	-11006
▁addressed	-11007
▁Constantin	-11008
▁progressed	-11009
▁parliamentary	-11010
▁Fur	-11011
▁Scr	-11012
▁mud	-11013
assed	-11014
▁1888	-11015
alford	-11016
▁facil	-11017
▁liner	-11018
▁Hearts	-11019
▁martin	-11020
▁Authority	-11021
▁boyfriend	-11022
▁threatening	-11023
▁archaeological	-11024
rod	-11025
▁Lü	-11026
auna	-11027
▁une	-11028
ritic	-11029
▁mail	-11030
▁migr	-11031
▁prox	-11032
▁sharing	-11033
▁benefits	-11034
▁structural	-11035
▁challenging	-11036
aro	-11037
run	-11038
anim	-11039
dess	-11040
▁1862	-11041
▁1877	-11042
▁Body	-11043
▁Cant	-11044
▁pref	-11045
▁acids	-11046
ancellor	-11047
▁Typhoon	-11048
▁armoured	-11049
▁inaugural	-11050
▁remembered	-11051
▁situations	-11052
bes	-11053
▁Side	-11054
▁inHg	-11055
▁exile	-11056
▁reass	-11057
▁Branch	-11058
▁afford	-11059
▁mounts	-11060
▁Spokane	-11061
▁immigrants	-11062
▁complicated	-11063
▁championships	-11064
dy	-11065
ido	-11066
ando	-11067
▁156	-11068
▁Gon	-11069
berry	-11070
▁Manu	-11071
▁loud	-11072
▁nurs	-11073
▁spur	-11074
▁Devil	-11075
▁spots	-11076
▁Tigers	-11077
▁random	-11078
▁roster	-11079
▁lighter	-11080
▁romance	-11081
▁circular	-11082
▁vicinity	-11083
▁Personnel	-11084
▁insurance	-11085
cu	-11086
ilis	-11087
ucker	-11088
▁jack	-11089
▁Shack	-11090
▁Stein	-11091
▁march	-11092
▁sugar	-11093
▁gentle	-11094
▁peoples	-11095
▁posthum	-11096
▁asserted	-11097
▁depicting	-11098
▁battlefield	-11099
▁explanation	-11100
gon	-11101
▁Blu	-11102
▁Ran	-11103
▁Und	-11104
▁lip	-11105
overy	-11106
▁Crus	-11107
▁Niss	-11108
▁obsc	-11109
otypes	-11110
▁Voice	-11111
changed	-11112
▁metall	-11113
▁regist	-11114
▁rehears	-11115
▁inducted	-11116
▁consumption	-11117
▁distinction	-11118
ME	-11119
▁145	-11120
▁Eld	-11121
▁Pic	-11122
▁avo	-11123
▁Kate	-11124
▁Guild	-11125
▁easier	-11126
▁hoping	-11127
▁rotation	-11128
▁calculated	-11129
eff	-11130
▁Hus	-11131
▁deputy	-11132
▁Princeton	-11133
▁conflicts	-11134
▁districts	-11135
▁favourite	-11136
▁politician	-11137
▁universities	-11138
izz	-11139
▁123	-11140
ensis	-11141
matic	-11142
▁Trav	-11143
▁bath	-11144
▁Helen	-11145
▁Danish	-11146
▁judges	-11147
▁Lancash	-11148
▁promise	-11149
▁climbing	-11150
▁warships	-11151
▁provisions	-11152
lem	-11153
anas	-11154
auge	-11155
omed	-11156
▁Beh	-11157
▁Ent	-11158
asury	-11159
▁Sean	-11160
▁fles	-11161
thlete	-11162
▁verte	-11163
▁exhibit	-11164
▁focuses	-11165
▁complained	-11166
▁mathematics	-11167
may	-11168
▁dy	-11169
arin	-11170
limin	-11171
▁Bengal	-11172
▁paying	-11173
▁revolt	-11174
▁Morning	-11175
▁percuss	-11176
▁eastward	-11177
▁upcoming	-11178
▁realistic	-11179
▁Lancashire	-11180
▁initiative	-11181
▁kilometers	-11182
▁undertaken	-11183
▁predominantly	-11184
▁159	-11185
rific	-11186
▁corps	-11187
▁dwarf	-11188
▁Butler	-11189
▁Justin	-11190
▁voting	-11191
▁avoided	-11192
▁steadily	-11193
▁telephone	-11194
▁intellectual	-11195
▁revolutionary	-11196
ema	-11197
fly	-11198
▁Bé	-11199
▁SE	-11200
▁450	-11201
antle	-11202
▁Bask	-11203
▁logo	-11204
usters	-11205
▁Lynch	-11206
▁McKin	-11207
▁Pruss	-11208
▁Youth	-11209
▁grows	-11210
▁hence	-11211
▁patri	-11212
▁Johann	-11213
▁Studies	-11214
▁onwards	-11215
▁roadway	-11216
▁scandal	-11217
▁villain	-11218
▁Caroline	-11219
▁preserve	-11220
▁expanding	-11221
▁fundamental	-11222
usc	-11223
flow	-11224
uber	-11225
▁vow	-11226
arded	-11227
ewise	-11228
inter	-11229
erness	-11230
rolled	-11231
▁Schum	-11232
▁Tracy	-11233
▁Wander	-11234
▁abroad	-11235
▁dinner	-11236
▁genres	-11237
▁matrix	-11238
▁convicted	-11239
▁Management	-11240
▁Chamberlain	-11241
da	-11242
bery	-11243
▁Pad	-11244
▁liv	-11245
▁Insp	-11246
▁Mans	-11247
▁bowl	-11248
▁tape	-11249
castle	-11250
keeper	-11251
▁Action	-11252
▁guests	-11253
▁runner	-11254
▁colored	-11255
▁viewing	-11256
▁Tournament	-11257
▁outstanding	-11258
etta	-11259
omon	-11260
▁Fil	-11261
▁mos	-11262
igger	-11263
▁Aren	-11264
▁Curt	-11265
▁Halo	-11266
▁Oslo	-11267
▁View	-11268
incinn	-11269
▁opens	-11270
▁Circuit	-11271
▁Maxwell	-11272
▁parking	-11273
▁absorbed	-11274
▁suggestion	-11275
▁Afghanistan	-11276
▁southwestern	-11277
▁fortifications	-11278
Ne	-11279
imm	-11280
uli	-11281
hend	-11282
▁107	-11283
▁132	-11284
▁Jar	-11285
▁Kes	-11286
▁boot	-11287
▁Colin	-11288
▁Psych	-11289
▁resid	-11290
▁Career	-11291
▁Nevada	-11292
▁Ronald	-11293
▁encomp	-11294
▁speeds	-11295
▁lawsuit	-11296
▁GameSpot	-11297
▁Phillies	-11298
▁mythology	-11299
▁releasing	-11300
▁Shackleton	-11301
▁speculation	-11302
▁assassination	-11303
bus	-11304
▁IP	-11305
▁ho	-11306
ught	-11307
▁Kan	-11308
▁Pas	-11309
▁RBI	-11310
▁mad	-11311
▁plum	-11312
▁incom	-11313
▁sized	-11314
▁anthem	-11315
▁couldn	-11316
▁remote	-11317
▁lyrical	-11318
▁Computer	-11319
▁concepts	-11320
▁biography	-11321
▁decreased	-11322
▁diversity	-11323
▁engineers	-11324
▁telescope	-11325
▁evacuation	-11326
▁continental	-11327
pin	-11328
ithm	-11329
▁isn	-11330
▁Cass	-11331
▁Nept	-11332
▁styl	-11333
▁swept	-11334
▁Report	-11335
▁darker	-11336
▁varies	-11337
▁gardens	-11338
▁trapped	-11339
▁enhanced	-11340
▁nickname	-11341
▁throwing	-11342
▁Historical	-11343
TS	-11344
gg	-11345
cut	-11346
▁MV	-11347
lett	-11348
▁Sak	-11349
▁gif	-11350
Brien	-11351
inisc	-11352
▁dual	-11353
▁mild	-11354
▁tomb	-11355
▁Exped	-11356
▁tempo	-11357
▁walks	-11358
▁Prison	-11359
▁comics	-11360
▁ritual	-11361
▁rushing	-11362
▁measuring	-11363
▁preceding	-11364
▁variations	-11365
▁corresponding	-11366
oirs	-11367
▁MLB	-11368
▁Hunt	-11369
▁dolph	-11370
▁worse	-11371
▁Observ	-11372
▁Powell	-11373
▁tissue	-11374
▁contacted	-11375
▁customers	-11376
▁recruited	-11377
▁encounters	-11378
▁consequence	-11379
▁Fly	-11380
▁Kaz	-11381
aiden	-11382
etary	-11383
▁Lords	-11384
▁Villa	-11385
▁lover	-11386
mingham	-11387
▁warned	-11388
▁Orchest	-11389
▁Register	-11390
▁creature	-11391
▁interven	-11392
ocol	-11393
▁Liu	-11394
backs	-11395
icism	-11396
iture	-11397
▁1866	-11398
▁nose	-11399
overed	-11400
▁Krist	-11401
▁optim	-11402
▁Chester	-11403
▁Cincinn	-11404
▁agencies	-11405
▁terminal	-11406
mad	-11407
▁Na	-11408
▁Meg	-11409
▁Saf	-11410
▁tap	-11411
anche	-11412
annon	-11413
▁1883	-11414
▁1886	-11415
▁Gran	-11416
▁Ruth	-11417
▁Month	-11418
▁links	-11419
▁Bennett	-11420
▁shelter	-11421
▁studios	-11422
▁winners	-11423
▁spacecraft	-11424
▁regulations	-11425
▁Pa	-11426
▁pm	-11427
icle	-11428
▁Beij	-11429
▁Pros	-11430
▁echo	-11431
▁gift	-11432
▁rape	-11433
▁touc	-11434
▁Tommy	-11435
▁moist	-11436
▁photo	-11437
▁Fourth	-11438
▁noticed	-11439
▁Airlines	-11440
▁exterior	-11441
▁dependent	-11442
▁reporting	-11443
uto	-11444
▁Tas	-11445
▁fab	-11446
▁gam	-11447
▁mal	-11448
▁1887	-11449
▁bell	-11450
usions	-11451
▁Solar	-11452
▁knows	-11453
▁manif	-11454
▁Athens	-11455
▁finest	-11456
▁opined	-11457
▁privile	-11458
▁tunnels	-11459
▁Democrats	-11460
▁historically	-11461
▁Ta	-11462
atty	-11463
itic	-11464
▁Ord	-11465
▁sin	-11466
eries	-11467
▁José	-11468
▁Mosc	-11469
actory	-11470
▁Eddie	-11471
▁Monte	-11472
▁keeps	-11473
▁subsc	-11474
▁Assist	-11475
▁Method	-11476
▁mixing	-11477
▁Athletic	-11478
▁centered	-11479
▁Cincinnati	-11480
▁compositions	-11481
rh	-11482
nda	-11483
mans	-11484
▁fra	-11485
onsin	-11486
▁Days	-11487
▁bars	-11488
overty	-11489
▁Athen	-11490
▁Chang	-11491
▁Serbia	-11492
▁authen	-11493
▁cartoon	-11494
▁wartime	-11495
▁ordinary	-11496
▁naturally	-11497
▁Collection	-11498
▁Expedition	-11499
▁developments	-11500
▁independently	-11501
HL	-11502
sch	-11503
▁Kl	-11504
▁fo	-11505
arck	-11506
▁Occ	-11507
▁Reyn	-11508
uilera	-11509
▁honey	-11510
▁liver	-11511
▁releg	-11512
▁confirm	-11513
▁Aguilera	-11514
▁connects	-11515
▁doctrine	-11516
▁fragment	-11517
▁jurisdiction	-11518
▁northeastern	-11519
ski	-11520
opol	-11521
▁Eff	-11522
▁les	-11523
orted	-11524
▁Hood	-11525
▁wrap	-11526
▁blend	-11527
▁gates	-11528
▁Altern	-11529
▁verses	-11530
▁Beijing	-11531
▁Filming	-11532
▁Gregory	-11533
▁Jamaica	-11534
▁fossils	-11535
▁astronom	-11536
▁helicopter	-11537
▁screenplay	-11538
erg	-11539
opl	-11540
▁LS	-11541
▁RO	-11542
▁Led	-11543
thodox	-11544
▁Bolton	-11545
▁themed	-11546
▁trailer	-11547
▁managing	-11548
▁presents	-11549
▁supports	-11550
▁promoting	-11551
▁industries	-11552
▁Revolutionary	-11553
iga	-11554
mont	-11555
arity	-11556
onial	-11557
▁AIDS	-11558
▁Calg	-11559
▁Rice	-11560
▁Suff	-11561
▁Wisc	-11562
▁clan	-11563
▁hide	-11564
▁wine	-11565
osaurs	-11566
▁Round	-11567
▁diary	-11568
▁Bosnia	-11569
▁breast	-11570
▁stones	-11571
liminary	-11572
▁Middles	-11573
▁borough	-11574
▁costume	-11575
▁payment	-11576
▁routing	-11577
▁venture	-11578
▁relieved	-11579
▁mechanism	-11580
▁Birmingham	-11581
▁speculated	-11582
▁reconstruct	-11583
▁HIV	-11584
▁Azer	-11585
▁Carn	-11586
▁grid	-11587
▁pink	-11588
▁balls	-11589
▁enlar	-11590
▁Sussex	-11591
▁inning	-11592
▁reader	-11593
▁Ancient	-11594
▁tourist	-11595
▁absolute	-11596
▁offshore	-11597
▁Wisconsin	-11598
▁Technology	-11599
▁comprising	-11600
▁Representatives	-11601
DA	-11602
lex	-11603
▁CM	-11604
gins	-11605
iors	-11606
▁157	-11607
anted	-11608
lined	-11609
music	-11610
▁Zone	-11611
▁epic	-11612
▁Style	-11613
▁angry	-11614
▁Oldham	-11615
▁brings	-11616
▁Compton	-11617
▁Pirates	-11618
▁mammals	-11619
▁martial	-11620
umberland	-11621
▁constitu	-11622
▁eligible	-11623
▁segments	-11624
▁thorough	-11625
▁companion	-11626
▁dispatched	-11627
▁Heavyweight	-11628
yd	-11629
Music	-11630
icken	-11631
▁Biden	-11632
▁blast	-11633
▁layers	-11634
▁operas	-11635
▁Salford	-11636
▁Rhodesia	-11637
▁congress	-11638
▁removing	-11639
▁particles	-11640
▁directions	-11641
▁functional	-11642
sky	-11643
avil	-11644
ovic	-11645
rium	-11646
stand	-11647
▁Expl	-11648
▁Mult	-11649
acking	-11650
ennial	-11651
osexual	-11652
▁marine	-11653
ribution	-11654
▁dancers	-11655
▁pleased	-11656
▁revenge	-11657
▁centimet	-11658
▁dropping	-11659
▁operates	-11660
▁distinguish	-11661
▁internationally	-11662
bre	-11663
▁TNA	-11664
olars	-11665
▁Hawk	-11666
▁oxid	-11667
▁Adela	-11668
▁McCar	-11669
▁Using	-11670
▁Austro	-11671
▁Watson	-11672
▁submer	-11673
▁colours	-11674
▁machines	-11675
▁condemned	-11676
▁positioned	-11677
eps	-11678
▁af	-11679
▁Lib	-11680
▁Ned	-11681
▁Rus	-11682
▁tea	-11683
▁Crom	-11684
▁Shir	-11685
▁Vegas	-11686
▁filmm	-11687
rington	-11688
▁Finals	-11689
▁solely	-11690
▁Calgary	-11691
▁contrad	-11692
▁symbols	-11693
▁Brighton	-11694
▁Symphony	-11695
▁resemble	-11696
▁Amendment	-11697
▁witnesses	-11698
▁hypothesis	-11699
▁exploration	-11700
▁131	-11701
▁Dak	-11702
▁Berm	-11703
▁Jard	-11704
▁Unit	-11705
icking	-11706
▁Burns	-11707
▁Draft	-11708
▁decay	-11709
▁usage	-11710
▁Former	-11711
▁fungus	-11712
▁myself	-11713
▁scales	-11714
▁Flanders	-11715
▁publicity	-11716
sa	-11717
oro	-11718
stock	-11719
▁1830	-11720
▁1840	-11721
▁1884	-11722
▁1885	-11723
▁Dian	-11724
▁Luft	-11725
▁Reed	-11726
▁Thor	-11727
▁tailed	-11728
▁Masters	-11729
▁Skinner	-11730
▁Newcastle	-11731
▁sensitive	-11732
▁objectives	-11733
▁disappointed	-11734
BO	-11735
di	-11736
quiry	-11737
rible	-11738
▁amph	-11739
▁milk	-11740
▁algor	-11741
▁amino	-11742
▁canon	-11743
▁cards	-11744
▁Intellig	-11745
▁Sciences	-11746
▁consistently	-11747
▁consideration	-11748
ouch	-11749
▁119	-11750
▁Exc	-11751
ighed	-11752
umble	-11753
▁Duch	-11754
▁bapt	-11755
▁Belie	-11756
▁boost	-11757
▁flour	-11758
▁Marcus	-11759
▁Romania	-11760
▁farmers	-11761
▁recruit	-11762
▁descript	-11763
▁emotions	-11764
▁magnetic	-11765
▁republic	-11766
▁whatever	-11767
▁sculpture	-11768
▁complaints	-11769
▁integrated	-11770
▁positively	-11771
▁permanently	-11772
cks	-11773
nan	-11774
▁Sour	-11775
▁Norse	-11776
▁elite	-11777
▁monit	-11778
▁conced	-11779
▁Liberty	-11780
▁reminisc	-11781
▁continent	-11782
▁assessment	-11783
▁vegetation	-11784
▁demographic	-11785
▁transmission	-11786
▁participating	-11787
avi	-11788
edia	-11789
ichi	-11790
▁Saw	-11791
▁bin	-11792
emark	-11793
keley	-11794
▁UEFA	-11795
▁dock	-11796
ailing	-11797
▁poster	-11798
rik	-11799
esar	-11800
imson	-11801
odied	-11802
ramid	-11803
▁1872	-11804
▁Nova	-11805
▁tent	-11806
▁wake	-11807
▁arose	-11808
▁Romans	-11809
issioned	-11810
▁Control	-11811
▁Musical	-11812
▁tickets	-11813
▁Alliance	-11814
▁Veronica	-11815
▁philosopher	-11816
▁interactions	-11817
ede	-11818
eling	-11819
endar	-11820
▁Barn	-11821
▁Bron	-11822
▁Camb	-11823
▁Pine	-11824
▁golf	-11825
inated	-11826
▁flown	-11827
▁scout	-11828
▁tools	-11829
▁wound	-11830
▁ascend	-11831
▁killer	-11832
▁Springs	-11833
▁diamond	-11834
▁frigate	-11835
▁Standard	-11836
▁reserves	-11837
▁comprised	-11838
▁defenders	-11839
▁explosive	-11840
▁physically	-11841
▁acquisition	-11842
▁resignation	-11843
▁autobiography	-11844
asha	-11845
held	-11846
▁Drag	-11847
▁ants	-11848
▁bore	-11849
▁butt	-11850
▁dome	-11851
▁rice	-11852
hening	-11853
▁sheet	-11854
▁therm	-11855
▁blamed	-11856
▁desper	-11857
▁honors	-11858
▁wolves	-11859
▁Abraham	-11860
▁rounded	-11861
▁Jennifer	-11862
▁honorary	-11863
▁creatures	-11864
▁depiction	-11865
ệm	-11866
quer	-11867
▁Ker	-11868
▁Kid	-11869
▁amp	-11870
emble	-11871
▁Diệm	-11872
▁Drew	-11873
▁Salv	-11874
▁lift	-11875
▁noir	-11876
▁Palmy	-11877
▁Pedro	-11878
▁enorm	-11879
▁loose	-11880
▁melod	-11881
▁Browns	-11882
▁Jeremy	-11883
▁intend	-11884
▁Brandon	-11885
▁Federer	-11886
▁Olivier	-11887
▁mystery	-11888
▁shipped	-11889
▁disbanded	-11890
▁Additional	-11891
▁Metacritic	-11892
▁accomplished	-11893
inz	-11894
uri	-11895
▁AL	-11896
▁Hi	-11897
anca	-11898
▁137	-11899
▁1848	-11900
▁Stop	-11901
▁nice	-11902
cester	-11903
hammad	-11904
▁harsh	-11905
▁Turkey	-11906
▁apolog	-11907
▁termed	-11908
▁caliber	-11909
▁estates	-11910
▁updated	-11911
▁unveiled	-11912
▁vocalist	-11913
▁Rhodesian	-11914
▁fragments	-11915
▁Christians	-11916
▁Composition	-11917
KO	-11918
enz	-11919
gam	-11920
▁Cut	-11921
▁Gay	-11922
▁cow	-11923
osion	-11924
▁Duck	-11925
▁Mend	-11926
aceous	-11927
riages	-11928
▁Malta	-11929
▁Quest	-11930
▁Total	-11931
regular	-11932
▁Harbor	-11933
▁stored	-11934
▁Current	-11935
▁Fighter	-11936
▁denomin	-11937
▁pounder	-11938
▁screens	-11939
▁disabled	-11940
▁celebrate	-11941
▁mechanics	-11942
▁navigation	-11943
▁Conservative	-11944
WA	-11945
▁BM	-11946
▁Seb	-11947
▁Syn	-11948
▁Fitz	-11949
▁Tests	-11950
▁cubic	-11951
▁Tasman	-11952
▁pupils	-11953
▁Herbert	-11954
▁discour	-11955
▁awareness	-11956
▁regiments	-11957
▁conducting	-11958
▁percussion	-11959
▁jaw	-11960
▁sib	-11961
rogen	-11962
▁1867	-11963
▁kids	-11964
▁Britt	-11965
▁Flore	-11966
▁Torch	-11967
▁Surrey	-11968
▁Serbian	-11969
▁Spencer	-11970
▁favored	-11971
▁focusing	-11972
▁homeless	-11973
▁prospect	-11974
▁teachers	-11975
▁qualities	-11976
▁Millennium	-11977
▁deliberately	-11978
▁Constantinople	-11979
mi	-11980
▁CP	-11981
acer	-11982
affe	-11983
▁230	-11984
▁fed	-11985
cling	-11986
izers	-11987
▁pill	-11988
▁swing	-11989
▁Griffin	-11990
▁pitching	-11991
▁incidents	-11992
▁merchants	-11993
▁searching	-11994
▁Basketball	-11995
▁Republicans	-11996
▁journalists	-11997
▁É	-11998
elta	-11999
oves	-12000
▁Bea	-12001
ework	-12002
▁dive	-12003
season	-12004
▁Ellen	-12005
▁Gabri	-12006
▁Torres	-12007
▁confer	-12008
▁genera	-12009
▁borders	-12010
▁marched	-12011
▁outcome	-12012
▁Hawaiian	-12013
▁confused	-12014
▁Lancaster	-12015
▁horsepower	-12016
▁Independence	-12017
▁intermediate	-12018
▁unsuccessfully	-12019
iji	-12020
umi	-12021
▁Dj	-12022
lord	-12023
▁117	-12024
▁1875	-12025
▁Bott	-12026
▁Gone	-12027
▁gest	-12028
rieved	-12029
▁unrel	-12030
istical	-12031
▁backst	-12032
▁Wheeler	-12033
▁ensuing	-12034
▁honours	-12035
▁partners	-12036
▁acclaimed	-12037
▁molecular	-12038
▁municipal	-12039
▁possessed	-12040
▁stability	-12041
▁transformed	-12042
▁psychological	-12043
fr	-12044
abl	-12045
▁Yu	-12046
assy	-12047
▁Ing	-12048
▁Nam	-12049
▁Sri	-12050
▁bol	-12051
▁VIII	-12052
▁masc	-12053
▁mbar	-12054
▁Grace	-12055
▁choir	-12056
▁Dennis	-12057
▁lesser	-12058
ordinary	-12059
▁Epstein	-12060
▁Friends	-12061
▁Jardine	-12062
▁Quarter	-12063
▁ignored	-12064
▁manages	-12065
▁poverty	-12066
▁Phillips	-12067
▁Reynolds	-12068
▁blockade	-12069
▁landmark	-12070
▁Westminster	-12071
neum	-12072
orig	-12073
▁Aer	-12074
▁Clarke	-12075
▁phosph	-12076
▁plates	-12077
▁walked	-12078
▁Against	-12079
▁Forever	-12080
▁convert	-12081
▁disliked	-12082
▁estimate	-12083
▁explored	-12084
▁Orchestra	-12085
▁mitochond	-12086
▁procedure	-12087
asp	-12088
iri	-12089
▁LP	-12090
edar	-12091
rost	-12092
unar	-12093
▁103	-12094
rians	-12095
▁Chile	-12096
▁Eston	-12097
▁reson	-12098
▁venues	-12099
▁Baptist	-12100
▁Islamic	-12101
▁Eastwood	-12102
▁Regional	-12103
▁quantities	-12104
ibl	-12105
ymn	-12106
ifax	-12107
isan	-12108
list	-12109
▁158	-12110
▁Fow	-12111
▁jew	-12112
▁Aber	-12113
▁Plate	-12114
▁arena	-12115
▁essay	-12116
▁tough	-12117
▁Baltic	-12118
▁Comedy	-12119
▁Region	-12120
▁agrees	-12121
▁detect	-12122
▁honest	-12123
▁staged	-12124
▁Halifax	-12125
▁Leonard	-12126
▁Aviation	-12127
▁locomotives	-12128
▁subtropical	-12129
▁nevertheless	-12130
boat	-12131
essa	-12132
▁1871	-12133
▁1881	-12134
▁Pike	-12135
▁troop	-12136
▁Carlos	-12137
▁nickel	-12138
▁remind	-12139
▁summon	-12140
▁Stefani	-12141
▁crucial	-12142
▁heavier	-12143
utherford	-12144
▁Berkeley	-12145
▁detected	-12146
▁generals	-12147
▁retreated	-12148
▁witnessed	-12149
▁Schumacher	-12150
▁atmospheric	-12151
▁complimented	-12152
▁instructions	-12153
▁129	-12154
▁Zah	-12155
adows	-12156
▁Bass	-12157
▁Ferr	-12158
▁Gwen	-12159
▁reop	-12160
▁seal	-12161
▁Logan	-12162
▁Magic	-12163
▁creek	-12164
▁ghost	-12165
▁grain	-12166
▁latest	-12167
▁Cavalry	-12168
▁Portugal	-12169
▁abundant	-12170
▁belonging	-12171
▁encourage	-12172
▁ceremonies	-12173
gun	-12174
▁EC	-12175
▁Ga	-12176
gans	-12177
▁Kon	-12178
▁RPG	-12179
▁Andr	-12180
▁merc	-12181
▁shar	-12182
▁Given	-12183
▁revol	-12184
▁Ferdin	-12185
▁Inside	-12186
▁eldest	-12187
▁merger	-12188
▁worker	-12189
▁convince	-12190
▁deposits	-12191
▁messages	-12192
▁ambassador	-12193
▁discussing	-12194
▁evolutionary	-12195
atz	-12196
▁122	-12197
▁151	-12198
▁tom	-12199
▁Schm	-12200
▁gram	-12201
▁Leban	-12202
▁Traff	-12203
▁nests	-12204
▁rifle	-12205
▁tasks	-12206
▁zones	-12207
▁photos	-12208
▁repris	-12209
▁Theater	-12210
▁finance	-12211
▁prompting	-12212
▁compromise	-12213
▁Aqu	-12214
▁Bak	-12215
▁unh	-12216
istle	-12217
▁Iran	-12218
▁Walt	-12219
aneous	-12220
▁Chase	-12221
▁Grove	-12222
▁holes	-12223
▁metap	-12224
▁config	-12225
▁finger	-12226
▁relied	-12227
▁jumping	-12228
▁irregular	-12229
▁undertook	-12230
aird	-12231
▁anx	-12232
▁reh	-12233
leted	-12234
▁Shan	-12235
▁trio	-12236
assing	-12237
▁Micha	-12238
▁aided	-12239
▁curve	-12240
▁Archae	-12241
▁Artist	-12242
▁Chelsea	-12243
▁Freedom	-12244
▁Perfect	-12245
▁coaches	-12246
▁belonged	-12247
▁coaching	-12248
▁damaging	-12249
▁priority	-12250
▁register	-12251
▁consensus	-12252
▁introduce	-12253
▁corruption	-12254
▁incomplete	-12255
cont	-12256
isor	-12257
utely	-12258
▁Kang	-12259
▁Mail	-12260
▁Talk	-12261
▁Perth	-12262
▁gusts	-12263
▁revel	-12264
▁Leices	-12265
▁thanks	-12266
▁Kenneth	-12267
▁Picture	-12268
▁reporter	-12269
▁volcanic	-12270
▁listening	-12271
▁phenomenon	-12272
▁intersections	-12273
vor	-12274
▁Pay	-12275
▁haz	-12276
archy	-12277
▁Otto	-12278
▁Pant	-12279
acular	-12280
▁Heath	-12281
▁coron	-12282
▁lakes	-12283
▁Kapoor	-12284
▁Wolver	-12285
▁flower	-12286
▁panels	-12287
▁tennis	-12288
▁acquire	-12289
▁compact	-12290
▁desired	-12291
▁Adelaide	-12292
▁associate	-12293
▁horizontal	-12294
bard	-12295
▁202	-12296
▁nep	-12297
▁Coal	-12298
▁Soph	-12299
▁Laura	-12300
▁argue	-12301
▁incred	-12302
▁Bermuda	-12303
▁lengths	-12304
▁strange	-12305
▁strings	-12306
▁transit	-12307
▁decisive	-12308
▁syndrome	-12309
▁improving	-12310
▁twentieth	-12311
▁achievements	-12312
oths	-12313
usty	-12314
▁CEO	-12315
actic	-12316
▁Wald	-12317
▁hunt	-12318
▁Smack	-12319
▁annex	-12320
▁shaft	-12321
▁assign	-12322
▁citizen	-12323
▁lengthy	-12324
▁singers	-12325
▁airborne	-12326
▁weakness	-12327
▁spectators	-12328
▁discussions	-12329
how	-12330
lair	-12331
▁Ach	-12332
▁Wit	-12333
▁1878	-12334
▁spar	-12335
istocr	-12336
▁Sword	-12337
▁postp	-12338
▁Future	-12339
▁intact	-12340
▁silent	-12341
ironments	-12342
▁networks	-12343
▁ultimate	-12344
▁Antarctic	-12345
▁contested	-12346
▁submerged	-12347
▁critically	-12348
▁mysterious	-12349
▁submarines	-12350
ér	-12351
ayan	-12352
lude	-12353
pher	-12354
▁Isab	-12355
▁craf	-12356
▁chrom	-12357
▁pseud	-12358
▁telev	-12359
▁Calais	-12360
▁AllMusic	-12361
▁Clarkson	-12362
▁Engineer	-12363
▁Movement	-12364
▁collision	-12365
▁Electronic	-12366
▁commitment	-12367
▁demonstrate	-12368
▁environments	-12369
▁northwestern	-12370
len	-12371
▁116	-12372
▁Leo	-12373
▁egg	-12374
▁1868	-12375
▁1869	-12376
▁Erie	-12377
▁brut	-12378
▁penn	-12379
▁aster	-12380
▁modes	-12381
▁selen	-12382
▁Stewie	-12383
▁clergy	-12384
▁Dynasty	-12385
▁monthly	-12386
ighthouse	-12387
▁indirect	-12388
▁coastline	-12389
▁populated	-12390
▁preventing	-12391
▁politically	-12392
adi	-12393
icus	-12394
▁Lot	-12395
owski	-12396
▁Rear	-12397
itects	-12398
licted	-12399
▁Bowie	-12400
▁Meyer	-12401
▁Patri	-12402
▁owing	-12403
▁Denver	-12404
▁Senior	-12405
▁modest	-12406
▁saving	-12407
▁tribut	-12408
agonists	-12409
▁Troilus	-12410
▁gallery	-12411
▁revived	-12412
▁sailors	-12413
▁massacre	-12414
▁overcome	-12415
▁switched	-12416
▁Alt	-12417
▁Gav	-12418
▁Bois	-12419
▁buff	-12420
▁Chand	-12421
▁Cinem	-12422
▁Edwin	-12423
▁metab	-12424
iblical	-12425
▁curved	-12426
▁skiing	-12427
▁dynamic	-12428
▁extends	-12429
▁Airborne	-12430
▁Robertson	-12431
▁projected	-12432
▁scientist	-12433
▁trademark	-12434
▁processing	-12435
▁proceedings	-12436
▁progressive	-12437
asia	-12438
▁Duc	-12439
▁Lan	-12440
Tunes	-12441
▁1873	-12442
▁Jazz	-12443
▁Lich	-12444
▁Seas	-12445
alties	-12446
hylogen	-12447
▁adjust	-12448
▁Conserv	-12449
▁faction	-12450
▁loyalty	-12451
▁weighed	-12452
▁barracks	-12453
▁examined	-12454
▁captivity	-12455
▁developer	-12456
▁machinery	-12457
▁privately	-12458
▁proclaimed	-12459
▁conjunction	-12460
bird	-12461
▁RNA	-12462
▁fru	-12463
aurus	-12464
▁Bear	-12465
▁Come	-12466
▁Drake	-12467
▁Lodge	-12468
▁chann	-12469
▁sheep	-12470
▁Fringe	-12471
▁Nansen	-12472
▁Vienna	-12473
▁dreadn	-12474
▁Commons	-12475
▁Newport	-12476
▁Raymond	-12477
▁Various	-12478
▁chapters	-12479
▁turbines	-12480
▁advocated	-12481
▁contribute	-12482
▁PH	-12483
wind	-12484
oting	-12485
regor	-12486
▁Pack	-12487
▁rays	-12488
▁sect	-12489
▁Aaron	-12490
▁Ghost	-12491
▁fears	-12492
igrated	-12493
▁Paragu	-12494
▁Philos	-12495
▁gaming	-12496
▁stroke	-12497
▁ceiling	-12498
▁doubles	-12499
▁routine	-12500
▁Brooklyn	-12501
▁eighteen	-12502
▁landings	-12503
▁mentions	-12504
▁repaired	-12505
▁literally	-12506
▁reluctant	-12507
▁Ré	-12508
hall	-12509
pler	-12510
▁Arc	-12511
▁raw	-12512
asses	-12513
▁Glee	-12514
▁user	-12515
▁Reich	-12516
▁cream	-12517
▁Barker	-12518
▁allied	-12519
▁condom	-12520
▁curves	-12521
▁monkey	-12522
▁athlete	-12523
▁batsman	-12524
▁aristocr	-12525
▁properly	-12526
▁subordin	-12527
▁surpassed	-12528
▁achievement	-12529
▁scholarship	-12530
ieg	-12531
vić	-12532
▁Ce	-12533
nery	-12534
uchi	-12535
▁Sex	-12536
atisf	-12537
ettes	-12538
phant	-12539
▁Food	-12540
▁epit	-12541
ophone	-12542
▁Jenny	-12543
▁digit	-12544
▁paved	-12545
▁Butter	-12546
▁Sunder	-12547
▁Culture	-12548
▁Solomon	-12549
▁proceeds	-12550
▁refugees	-12551
▁cooperation	-12552
▁measurements	-12553
▁ov	-12554
Down	-12555
anne	-12556
itars	-12557
ooter	-12558
quest	-12559
▁Beec	-12560
▁Bism	-12561
▁Carr	-12562
▁Sinc	-12563
▁Vick	-12564
▁hurt	-12565
ashing	-12566
istani	-12567
▁Range	-12568
▁fatal	-12569
▁rider	-12570
▁Contem	-12571
▁backup	-12572
▁ironcl	-12573
▁radius	-12574
▁versus	-12575
▁Lithuan	-12576
▁readily	-12577
▁disputed	-12578
▁opinions	-12579
▁tourists	-12580
▁Character	-12581
▁Pakistani	-12582
▁SmackDown	-12583
▁peninsula	-12584
▁redevelop	-12585
▁conspiracy	-12586
▁punishment	-12587
▁reminiscent	-12588
ön	-12589
eod	-12590
kef	-12591
▁Dh	-12592
undy	-12593
urse	-12594
▁Kam	-12595
▁Mak	-12596
▁Moz	-12597
▁Sed	-12598
▁lux	-12599
▁Bris	-12600
▁amid	-12601
▁laps	-12602
▁puzz	-12603
▁Chall	-12604
▁swall	-12605
enhower	-12606
▁Almost	-12607
▁Contin	-12608
▁bowled	-12609
▁guards	-12610
▁iTunes	-12611
▁remake	-12612
▁suffer	-12613
▁Genesis	-12614
▁Notable	-12615
▁license	-12616
▁monster	-12617
▁refuses	-12618
▁actively	-12619
▁aviation	-12620
▁imported	-12621
▁reserved	-12622
▁thoughts	-12623
▁Eisenhower	-12624
▁acceptance	-12625
▁substitute	-12626
▁commentators	-12627
▁expectations	-12628
var	-12629
▁UB	-12630
omys	-12631
▁Bes	-12632
▁Gem	-12633
▁MVP	-12634
▁Dale	-12635
▁Hast	-12636
▁Kess	-12637
▁joke	-12638
ebeest	-12639
▁Lakes	-12640
▁Moscow	-12641
▁insuff	-12642
▁masses	-12643
isations	-12644
▁memories	-12645
▁Relations	-12646
▁contempor	-12647
▁gathering	-12648
▁sufficiently	-12649
▁Wel	-12650
found	-12651
iffer	-12652
▁Glas	-12653
▁blog	-12654
ampire	-12655
herent	-12656
▁Hutch	-12657
▁Vaugh	-12658
▁flesh	-12659
▁gauge	-12660
▁unpop	-12661
▁width	-12662
▁Nissan	-12663
▁Palmer	-12664
▁Saints	-12665
▁Wilfrid	-12666
▁auction	-12667
▁graphic	-12668
▁grossed	-12669
▁mistake	-12670
▁Resident	-12671
▁Turnpike	-12672
▁corridor	-12673
▁millions	-12674
▁scenario	-12675
▁sporting	-12676
▁tensions	-12677
▁Archbishop	-12678
▁comparable	-12679
▁successive	-12680
▁dimensional	-12681
hou	-12682
▁yd	-12683
hero	-12684
▁118	-12685
▁Mom	-12686
▁Poe	-12687
▁Tub	-12688
▁Wis	-12689
▁Marl	-12690
▁Floyd	-12691
▁cameo	-12692
▁spell	-12693
▁spite	-12694
▁Spirit	-12695
▁floods	-12696
▁prince	-12697
▁steady	-12698
▁suited	-12699
▁elevated	-12700
▁Rochester	-12701
▁editorial	-12702
▁attractive	-12703
▁regardless	-12704
▁separately	-12705
▁sovereignty	-12706
▁comprehensive	-12707
apy	-12708
roat	-12709
▁Num	-12710
▁Benz	-12711
▁Wang	-12712
▁icon	-12713
otilla	-12714
▁Fight	-12715
▁fault	-12716
▁Julian	-12717
▁hamlet	-12718
▁incons	-12719
▁Maurice	-12720
▁knowing	-12721
▁rectang	-12722
▁appealed	-12723
▁emerging	-12724
▁engaging	-12725
▁coalition	-12726
▁nicknamed	-12727
▁progression	-12728
▁manufactured	-12729
▁neighbouring	-12730
gow	-12731
ulu	-12732
▁Dy	-12733
▁750	-12734
▁Kem	-12735
▁cro	-12736
▁ups	-12737
ungle	-12738
▁Doug	-12739
▁Falk	-12740
▁Pent	-12741
▁Rare	-12742
▁ware	-12743
▁chore	-12744
▁drunk	-12745
▁lineup	-12746
▁athletic	-12747
▁printing	-12748
▁metropolitan	-12749
▁Mi	-12750
alia	-12751
anka	-12752
oque	-12753
▁Mig	-12754
▁Than	-12755
▁adds	-12756
▁file	-12757
▁inex	-12758
▁quit	-12759
▁Fifth	-12760
▁Opera	-12761
▁Rhode	-12762
▁Rosen	-12763
▁Sonic	-12764
▁draws	-12765
instein	-12766
rection	-12767
▁Choice	-12768
▁improv	-12769
▁unanim	-12770
▁mansion	-12771
▁unaware	-12772
▁Michelle	-12773
▁Cardinals	-12774
▁exercises	-12775
▁Headquarters	-12776
▁decompression	-12777
SA	-12778
irk	-12779
uro	-12780
ère	-12781
▁Ps	-12782
▁XV	-12783
▁Kil	-12784
ankar	-12785
front	-12786
▁True	-12787
▁abst	-12788
▁terr	-12789
roscop	-12790
▁jokes	-12791
▁repet	-12792
▁taxon	-12793
▁domain	-12794
▁notion	-12795
▁delight	-12796
▁invented	-12797
▁Generation	-12798
▁accomplish	-12799
▁specialized	-12800
aple	-12801
▁124	-12802
▁RKO	-12803
works	-12804
▁NASA	-12805
▁Self	-12806
▁busy	-12807
▁rook	-12808
▁Ferry	-12809
▁Zahir	-12810
▁forts	-12811
▁greet	-12812
▁princ	-12813
angered	-12814
estrian	-12815
▁Adrian	-12816
▁Barnes	-12817
▁Comple	-12818
▁Number	-12819
▁arcade	-12820
▁carved	-12821
▁proxim	-12822
▁rushed	-12823
▁involve	-12824
▁triumph	-12825
▁Sinclair	-12826
▁judicial	-12827
ologically	-12828
▁Therefore	-12829
agi	-12830
gus	-12831
uka	-12832
▁Et	-12833
▁Ze	-12834
igon	-12835
▁Tru	-12836
▁ion	-12837
fires	-12838
▁hipp	-12839
▁Happy	-12840
▁motif	-12841
▁Capcom	-12842
▁Damage	-12843
▁halted	-12844
▁spawned	-12845
▁Telegraph	-12846
▁Industrial	-12847
gov	-12848
▁Ky	-12849
▁hi	-12850
▁ESP	-12851
▁Hat	-12852
▁Lag	-12853
▁Put	-12854
ierra	-12855
▁1874	-12856
▁Gren	-12857
estock	-12858
▁Apart	-12859
▁Delta	-12860
▁Franz	-12861
▁trips	-12862
▁Female	-12863
▁Surviv	-12864
▁spores	-12865
▁Cyclone	-12866
▁guitars	-12867
▁subsidi	-12868
▁floating	-12869
▁licensed	-12870
▁sexually	-12871
▁Brigadier	-12872
▁Palestine	-12873
▁authentic	-12874
▁Rutherford	-12875
▁allegations	-12876
▁interrupted	-12877
chw	-12878
acco	-12879
acht	-12880
▁138	-12881
▁Hey	-12882
▁Lil	-12883
▁Sha	-12884
▁asc	-12885
eches	-12886
▁Kart	-12887
▁Plat	-12888
▁Tell	-12889
▁Yosh	-12890
▁bold	-12891
▁Arena	-12892
▁Wings	-12893
▁Celtic	-12894
▁blacks	-12895
▁Commerc	-12896
▁speaker	-12897
▁relating	-12898
▁revealing	-12899
▁Sunderland	-12900
▁interviewed	-12901
▁consequences	-12902
še	-12903
ugs	-12904
▁CA	-12905
▁Vl	-12906
anan	-12907
itol	-12908
▁Cou	-12909
olith	-12910
▁intr	-12911
mother	-12912
▁cease	-12913
▁ineff	-12914
▁Things	-12915
▁jersey	-12916
▁Frances	-12917
▁Jeffrey	-12918
▁Knights	-12919
▁Preston	-12920
▁Wallace	-12921
▁diseases	-12922
▁scrapped	-12923
▁shopping	-12924
▁Ferdinand	-12925
▁abolished	-12926
▁comparing	-12927
▁philosoph	-12928
▁formations	-12929
▁incorporates	-12930
lide	-12931
▁Gor	-12932
▁Hom	-12933
icity	-12934
▁Hond	-12935
▁pier	-12936
▁Money	-12937
▁copyr	-12938
▁stair	-12939
atorial	-12940
▁Muslims	-12941
▁gravity	-12942
▁impress	-12943
▁smoking	-12944
▁Agricult	-12945
▁Chairman	-12946
▁frontier	-12947
▁hardware	-12948
▁membrane	-12949
▁rebounds	-12950
bai	-12951
esh	-12952
idia	-12953
▁cha	-12954
actor	-12955
itory	-12956
▁1879	-12957
▁Wine	-12958
▁stom	-12959
▁Comet	-12960
▁Truth	-12961
▁proud	-12962
▁stall	-12963
▁Landis	-12964
▁Tucker	-12965
▁diving	-12966
▁Actress	-12967
▁Stevens	-12968
▁goddess	-12969
▁lessons	-12970
▁nervous	-12971
▁Bismarck	-12972
▁advances	-12973
▁disputes	-12974
▁habitats	-12975
▁Nashville	-12976
▁perfectly	-12977
▁proximity	-12978
▁discipline	-12979
▁competitors	-12980
tage	-12981
▁Kot	-12982
▁Too	-12983
▁rav	-12984
aults	-12985
brook	-12986
urers	-12987
▁1882	-12988
▁Lore	-12989
▁unre	-12990
ervers	-12991
▁antib	-12992
▁deals	-12993
▁fract	-12994
▁infin	-12995
▁input	-12996
▁minim	-12997
▁Survey	-12998
▁fabric	-12999
▁lifted	-13000
▁variant	-13001
imination	-13002
▁pleasure	-13003
▁descended	-13004
▁Professional	-13005
bie	-13006
zes	-13007
▁142	-13008
▁Hog	-13009
▁aqu	-13010
▁etc	-13011
opoly	-13012
ounce	-13013
▁Conv	-13014
▁Sold	-13015
▁cats	-13016
▁gamb	-13017
▁Appro	-13018
▁Hobbs	-13019
▁Scand	-13020
▁farms	-13021
▁pneum	-13022
▁relay	-13023
▁Arctic	-13024
▁cruise	-13025
▁mutual	-13026
▁Advance	-13027
▁Baldwin	-13028
▁signals	-13029
▁staying	-13030
▁therapy	-13031
▁eruption	-13032
▁Admiralty	-13033
▁memorable	-13034
▁volunteer	-13035
▁instructed	-13036
▁performers	-13037
▁declaration	-13038
▁administered	-13039
▁preparations	-13040
uy	-13041
chy	-13042
iah	-13043
▁Má	-13044
atar	-13045
rina	-13046
▁oct	-13047
▁Crow	-13048
▁Shah	-13049
▁Spit	-13050
▁dorm	-13051
▁funk	-13052
▁Reform	-13053
▁Rockef	-13054
▁roller	-13055
▁Cabinet	-13056
▁Parkway	-13057
▁expense	-13058
▁farming	-13059
▁magical	-13060
▁undergo	-13061
▁requests	-13062
▁nineteenth	-13063
▁descendants	-13064
▁Commissioner	-13065
▁discontinued	-13066
▁installation	-13067
iko	-13068
iata	-13069
ivic	-13070
oria	-13071
▁Fun	-13072
▁Ist	-13073
▁Laz	-13074
pling	-13075
ushes	-13076
utter	-13077
▁Shaw	-13078
▁dawn	-13079
▁flee	-13080
▁Busch	-13081
▁Shear	-13082
▁Towns	-13083
▁ambul	-13084
▁cents	-13085
▁joins	-13086
▁trigg	-13087
▁Byzant	-13088
▁slower	-13089
▁Private	-13090
▁Stanton	-13091
▁kitchen	-13092
▁deciding	-13093
▁Publishing	-13094
▁Consequently	-13095
▁Intelligence	-13096
▁entertaining	-13097
▁insufficient	-13098
iki	-13099
zac	-13100
ikes	-13101
aston	-13102
▁Look	-13103
ulture	-13104
▁opted	-13105
▁topic	-13106
▁widow	-13107
▁perpet	-13108
▁Azerbai	-13109
▁crowned	-13110
▁excited	-13111
▁channels	-13112
▁drainage	-13113
▁dissolved	-13114
▁distances	-13115
▁fortified	-13116
▁inhabited	-13117
▁ministers	-13118
▁unpopular	-13119
▁remarkable	-13120
▁Productions	-13121
▁contributing	-13122
▁Sep	-13123
opsis	-13124
▁Gust	-13125
▁item	-13126
ellers	-13127
▁Flood	-13128
▁Motor	-13129
▁cabin	-13130
▁seeds	-13131
▁sting	-13132
▁Circle	-13133
▁Galaxy	-13134
▁muzzle	-13135
▁nephew	-13136
▁unrest	-13137
▁Georget	-13138
▁Stories	-13139
▁Muhammad	-13140
▁Warriors	-13141
▁assessed	-13142
▁redesign	-13143
▁abolition	-13144
▁seemingly	-13145
▁orchestral	-13146
▁identification	-13147
ín	-13148
▁‘	-13149
pow	-13150
▁UC	-13151
enez	-13152
send	-13153
▁Yet	-13154
▁1812	-13155
▁soci	-13156
ishops	-13157
▁Randy	-13158
▁Squad	-13159
▁Zhang	-13160
▁shops	-13161
through	-13162
▁Miguel	-13163
▁loaded	-13164
▁pushing	-13165
▁uprising	-13166
▁graduating	-13167
▁introducing	-13168
arma	-13169
fold	-13170
onde	-13171
oton	-13172
▁134	-13173
▁Was	-13174
▁sic	-13175
guard	-13176
▁Term	-13177
▁Want	-13178
▁beer	-13179
▁unst	-13180
▁Bryan	-13181
▁Giant	-13182
▁adequ	-13183
▁miner	-13184
▁barely	-13185
▁deeper	-13186
▁errors	-13187
▁Trinity	-13188
▁genuine	-13189
▁Columbus	-13190
▁settings	-13191
▁contracted	-13192
▁hurricanes	-13193
▁Renaissance	-13194
▁instrumentation	-13195
kan	-13196
▁Gh	-13197
geon	-13198
▁128	-13199
▁Dre	-13200
▁gig	-13201
▁nam	-13202
flies	-13203
▁Rams	-13204
▁bunk	-13205
▁plut	-13206
ipping	-13207
ortion	-13208
▁deton	-13209
▁ruins	-13210
▁rapper	-13211
▁sympat	-13212
▁washed	-13213
overning	-13214
▁experts	-13215
▁confined	-13216
▁Whitehead	-13217
▁disappear	-13218
▁underwater	-13219
▁necessarily	-13220
▁demonstration	-13221
qui	-13222
▁Ec	-13223
post	-13224
arted	-13225
cliff	-13226
odium	-13227
▁hung	-13228
▁punk	-13229
▁sink	-13230
▁Crazy	-13231
▁Herze	-13232
▁Stern	-13233
▁fraud	-13234
▁shirt	-13235
▁sixty	-13236
▁assume	-13237
▁metals	-13238
▁topics	-13239
▁Borough	-13240
▁Windsor	-13241
▁profits	-13242
▁enormous	-13243
▁lifestyle	-13244
▁songwriting	-13245
udi	-13246
cour	-13247
hers	-13248
lein	-13249
▁148	-13250
▁Why	-13251
▁hier	-13252
ficial	-13253
icular	-13254
▁Mered	-13255
▁criter	-13256
▁muscle	-13257
▁Formula	-13258
▁Meredith	-13259
▁averaged	-13260
▁internet	-13261
▁exhibited	-13262
▁governing	-13263
▁Adventures	-13264
▁Protection	-13265
zel	-13266
▁Uk	-13267
enos	-13268
oric	-13269
osal	-13270
▁outs	-13271
rators	-13272
▁Haiti	-13273
▁Steam	-13274
▁inhib	-13275
▁Luther	-13276
▁Regard	-13277
▁preval	-13278
▁spider	-13279
▁trucks	-13280
▁McDonald	-13281
▁Treasury	-13282
▁basement	-13283
▁keyboard	-13284
▁reversed	-13285
▁theaters	-13286
▁allegedly	-13287
▁computers	-13288
▁substance	-13289
▁pronounced	-13290
▁Rockefeller	-13291
▁Subsequently	-13292
ikh	-13293
usk	-13294
inqu	-13295
pect	-13296
▁Hip	-13297
▁WWF	-13298
▁Clif	-13299
▁Soft	-13300
esters	-13301
▁accus	-13302
▁dealt	-13303
▁eaten	-13304
▁Barbad	-13305
▁tended	-13306
▁damages	-13307
▁temples	-13308
▁Allmusic	-13309
▁Gameplay	-13310
▁Northumb	-13311
▁suburban	-13312
▁tactical	-13313
▁eliminate	-13314
▁maintains	-13315
▁sexuality	-13316
▁Engineering	-13317
▁preliminary	-13318
▁Contemporary	-13319
▁imprisonment	-13320
▁overwhelming	-13321
▁illustrations	-13322
CO	-13323
mill	-13324
▁270	-13325
▁Arj	-13326
▁joy	-13327
▁tum	-13328
uania	-13329
▁Gonz	-13330
▁Reds	-13331
▁Spot	-13332
▁Tamp	-13333
▁keen	-13334
▁Dawla	-13335
▁Recre	-13336
▁anger	-13337
▁bread	-13338
▁divine	-13339
▁extant	-13340
▁hiding	-13341
▁layout	-13342
▁presum	-13343
▁summar	-13344
▁Shirley	-13345
▁publish	-13346
▁Michaels	-13347
▁cultures	-13348
▁enrolled	-13349
▁infected	-13350
▁Lithuania	-13351
▁declaring	-13352
▁excessive	-13353
▁successes	-13354
▁undergrad	-13355
▁derivative	-13356
▁northbound	-13357
▁perception	-13358
▁investigated	-13359
▁strengthening	-13360
▁.2	-13361
▁ba	-13362
asis	-13363
este	-13364
itsu	-13365
▁Aur	-13366
▁Pon	-13367
▁oak	-13368
isans	-13369
▁Holl	-13370
▁Resp	-13371
▁athe	-13372
▁Bangl	-13373
▁drift	-13374
▁hatch	-13375
▁hyper	-13376
▁rally	-13377
▁semif	-13378
▁Marath	-13379
▁Saturn	-13380
▁locate	-13381
▁stabil	-13382
▁symmet	-13383
▁Diamond	-13384
▁Glasgow	-13385
▁Reviews	-13386
▁missile	-13387
▁unnamed	-13388
▁regained	-13389
▁Architect	-13390
▁disappoint	-13391
▁presidency	-13392
evo	-13393
▁Cec	-13394
▁Miy	-13395
▁Sto	-13396
esses	-13397
▁Pend	-13398
▁haul	-13399
olades	-13400
▁Films	-13401
▁Isles	-13402
▁Witch	-13403
▁blown	-13404
▁disgu	-13405
▁lacks	-13406
▁enable	-13407
▁traits	-13408
▁Airways	-13409
▁Capital	-13410
▁Monster	-13411
▁doctors	-13412
inguished	-13413
▁Chemical	-13414
▁Assistant	-13415
▁Parachute	-13416
▁allocated	-13417
▁civilization	-13418
▁compensation	-13419
leb	-13420
▁NL	-13421
acey	-13422
amics	-13423
osity	-13424
waffe	-13425
▁Give	-13426
▁Lear	-13427
▁duet	-13428
▁riot	-13429
ocaust	-13430
▁García	-13431
▁Kaiser	-13432
▁Shadow	-13433
▁Warsaw	-13434
▁nights	-13435
▁wishes	-13436
▁Hammond	-13437
▁escapes	-13438
▁harvest	-13439
▁realised	-13440
▁surfaces	-13441
▁collecting	-13442
▁executives	-13443
▁invitation	-13444
▁extraordinary	-13445
cat	-13446
▁CS	-13447
▁XI	-13448
hart	-13449
▁Eva	-13450
▁ibn	-13451
alach	-13452
▁1854	-13453
▁Adri	-13454
▁Axis	-13455
▁clay	-13456
employ	-13457
▁Store	-13458
▁bench	-13459
▁relax	-13460
▁Caesar	-13461
▁Desert	-13462
▁Fergus	-13463
▁Heaven	-13464
▁Nation	-13465
▁bitter	-13466
▁proven	-13467
▁Finnish	-13468
▁Pickett	-13469
▁streams	-13470
▁warriors	-13471
▁Lightning	-13472
▁affecting	-13473
▁demanding	-13474
▁shipments	-13475
▁intelligent	-13476
▁intercepted	-13477
▁neighboring	-13478
oi	-13479
vy	-13480
lew	-13481
wer	-13482
atri	-13483
▁Lie	-13484
▁Chan	-13485
▁bend	-13486
illand	-13487
▁Buffy	-13488
▁Sport	-13489
▁Urban	-13490
▁seize	-13491
▁Combat	-13492
▁embarr	-13493
▁pocket	-13494
▁sacred	-13495
▁slopes	-13496
▁voters	-13497
▁secular	-13498
▁tourism	-13499
▁generate	-13500
▁particle	-13501
▁breakdown	-13502
hey	-13503
raid	-13504
▁141	-13505
▁NOK	-13506
elfth	-13507
▁Canu	-13508
▁calm	-13509
▁oral	-13510
▁Citiz	-13511
▁Comic	-13512
▁reper	-13513
ountain	-13514
versely	-13515
▁Sebast	-13516
▁assets	-13517
▁insist	-13518
▁Marshal	-13519
▁bankrupt	-13520
▁veterans	-13521
▁composers	-13522
▁molecules	-13523
MI	-13524
Pa	-13525
ahu	-13526
isk	-13527
neg	-13528
▁MG	-13529
iary	-13530
▁RIAA	-13531
▁anth	-13532
▁corp	-13533
▁hect	-13534
▁Blair	-13535
▁Devon	-13536
▁botan	-13537
▁Deputy	-13538
▁shadow	-13539
▁sphere	-13540
▁Outside	-13541
▁convinc	-13542
▁nucleus	-13543
▁outlets	-13544
▁precise	-13545
▁clusters	-13546
▁Havilland	-13547
▁Luftwaffe	-13548
iop	-13549
▁.3	-13550
▁SN	-13551
atum	-13552
onso	-13553
▁133	-13554
▁Dud	-13555
▁Ess	-13556
▁Wey	-13557
▁Burg	-13558
▁sear	-13559
aulted	-13560
rained	-13561
▁Drama	-13562
▁Marqu	-13563
▁bills	-13564
▁Archer	-13565
▁Sierra	-13566
▁export	-13567
▁grants	-13568
▁harbor	-13569
▁subtle	-13570
▁Metroid	-13571
▁Presley	-13572
▁loading	-13573
▁nearest	-13574
▁totaled	-13575
▁midnight	-13576
▁ambitious	-13577
▁delegates	-13578
▁respected	-13579
▁procedures	-13580
ni	-13581
pit	-13582
▁Sr	-13583
asma	-13584
▁Nan	-13585
▁por	-13586
▁rer	-13587
etics	-13588
▁ESPN	-13589
▁Hous	-13590
▁Mann	-13591
▁rebel	-13592
▁Colomb	-13593
▁Easter	-13594
▁Hispan	-13595
▁speakers	-13596
▁Political	-13597
▁Torchwood	-13598
▁unusually	-13599
▁nationally	-13600
sta	-13601
zed	-13602
bing	-13603
igne	-13604
ptic	-13605
urbs	-13606
▁Bod	-13607
▁Moh	-13608
▁Sor	-13609
▁Zoo	-13610
▁hur	-13611
▁1851	-13612
▁ally	-13613
▁subd	-13614
▁Metal	-13615
▁Foster	-13616
▁Hannah	-13617
▁Prepar	-13618
▁delays	-13619
▁Cornwall	-13620
▁prosecut	-13621
▁triangle	-13622
igo	-13623
ubs	-13624
▁XX	-13625
agic	-13626
lane	-13627
star	-13628
upid	-13629
▁210	-13630
▁Rot	-13631
scrap	-13632
▁Page	-13633
▁clar	-13634
▁fees	-13635
▁gear	-13636
▁pine	-13637
▁mobil	-13638
▁coffee	-13639
▁nomine	-13640
▁runway	-13641
▁worlds	-13642
▁Knowles	-13643
▁barrier	-13644
▁Starting	-13645
▁boarding	-13646
▁grandson	-13647
▁operator	-13648
▁Dominican	-13649
▁negotiated	-13650
RO	-13651
▁Mut	-13652
oline	-13653
▁Lucy	-13654
▁cave	-13655
▁rows	-13656
luence	-13657
▁Bridg	-13658
▁Essex	-13659
▁integ	-13660
▁lined	-13661
▁peers	-13662
▁refit	-13663
▁Forbes	-13664
▁gospel	-13665
▁heroes	-13666
▁organs	-13667
▁overth	-13668
▁worksh	-13669
▁Canucks	-13670
▁hanging	-13671
▁Observer	-13672
▁Sergeant	-13673
▁Survivor	-13674
▁employee	-13675
▁goaltend	-13676
▁Southeast	-13677
▁diagnosed	-13678
▁propaganda	-13679
▁prosecution	-13680
ums	-13681
▁spo	-13682
▁boom	-13683
ailand	-13684
▁Venez	-13685
rolling	-13686
▁dragon	-13687
▁resort	-13688
▁Origins	-13689
▁Titanic	-13690
▁cameras	-13691
▁consent	-13692
▁counsel	-13693
▁pressed	-13694
▁Herzegov	-13695
▁Leicester	-13696
▁plutonium	-13697
▁Philippine	-13698
▁protecting	-13699
▁Continental	-13700
▁Nonetheless	-13701
▁mathematical	-13702
▁neighborhoods	-13703
▁CN	-13704
▁SC	-13705
▁VH	-13706
bred	-13707
▁ank	-13708
▁ost	-13709
▁sew	-13710
▁Anti	-13711
▁Como	-13712
▁Joel	-13713
▁Lead	-13714
▁Serbs	-13715
▁Singh	-13716
▁Stage	-13717
▁Truman	-13718
▁interf	-13719
▁planes	-13720
▁suburb	-13721
▁cluster	-13722
▁Scouting	-13723
▁recognize	-13724
▁absolutely	-13725
▁accordance	-13726
▁controller	-13727
▁storylines	-13728
rip	-13729
▁IC	-13730
arks	-13731
core	-13732
▁1200	-13733
▁Cena	-13734
▁Coul	-13735
▁Epis	-13736
▁artif	-13737
▁Arabic	-13738
▁Fowler	-13739
▁safely	-13740
▁Canning	-13741
▁choices	-13742
▁mushroom	-13743
▁Lithuanian	-13744
▁subsidiary	-13745
▁underlying	-13746
ele	-13747
ifa	-13748
orf	-13749
▁oz	-13750
anth	-13751
iche	-13752
uity	-13753
▁136	-13754
▁Aub	-13755
▁Gam	-13756
▁sor	-13757
▁Trad	-13758
▁Zhou	-13759
▁trap	-13760
anking	-13761
▁Large	-13762
▁Weber	-13763
▁devil	-13764
▁edges	-13765
original	-13766
▁Scandin	-13767
▁Vaughan	-13768
▁entries	-13769
▁choosing	-13770
▁phylogen	-13771
▁locomotive	-13772
▁instruction	-13773
▁restaurants	-13774
beit	-13775
colm	-13776
imus	-13777
▁Rav	-13778
heads	-13779
heres	-13780
steen	-13781
▁Clem	-13782
▁clip	-13783
▁shed	-13784
▁Chron	-13785
▁Crime	-13786
▁Derby	-13787
▁ridic	-13788
▁Hollow	-13789
▁Online	-13790
▁floors	-13791
▁meteor	-13792
▁wounds	-13793
▁Barrett	-13794
▁colonel	-13795
▁lowered	-13796
▁starter	-13797
▁totally	-13798
▁stripped	-13799
▁fatalities	-13800
▁Southampton	-13801
▁northwestward	-13802
ED	-13803
arus	-13804
pole	-13805
▁280	-13806
union	-13807
▁puts	-13808
▁tide	-13809
▁Basin	-13810
▁concl	-13811
▁drops	-13812
▁satir	-13813
avilion	-13814
taining	-13815
▁albeit	-13816
▁decomm	-13817
▁fights	-13818
▁stance	-13819
▁tables	-13820
▁Volunte	-13821
▁elderly	-13822
▁erosion	-13823
▁patrols	-13824
▁qualify	-13825
criptions	-13826
▁preceded	-13827
▁secretly	-13828
▁designers	-13829
▁supporter	-13830
▁teammates	-13831
▁deployment	-13832
▁emphasized	-13833
▁consequently	-13834
▁interference	-13835
cope	-13836
▁260	-13837
▁Mam	-13838
▁Auto	-13839
▁Cool	-13840
▁Wend	-13841
▁mast	-13842
▁rush	-13843
enburg	-13844
▁Cloud	-13845
▁slope	-13846
▁snake	-13847
▁Archie	-13848
▁Legion	-13849
▁Panama	-13850
▁Strait	-13851
▁clever	-13852
▁median	-13853
▁retros	-13854
▁Britney	-13855
▁depends	-13856
▁Florence	-13857
▁Matthews	-13858
▁Thailand	-13859
▁concludes	-13860
▁livestock	-13861
▁conviction	-13862
▁detachment	-13863
▁efficiency	-13864
RS	-13865
yon	-13866
▁Fey	-13867
▁Thi	-13868
child	-13869
emann	-13870
▁1855	-13871
▁Fant	-13872
▁Kiss	-13873
▁Ober	-13874
▁Wilm	-13875
▁gren	-13876
▁Tyler	-13877
▁poets	-13878
▁Compan	-13879
▁Nicole	-13880
▁Twenty	-13881
▁genius	-13882
▁realize	-13883
▁Geoffrey	-13884
▁Venezuel	-13885
▁advocate	-13886
▁charting	-13887
▁reflects	-13888
▁Principal	-13889
▁celebrity	-13890
▁colleague	-13891
▁promising	-13892
▁sacrifice	-13893
▁sophistic	-13894
▁incorporate	-13895
▁limitations	-13896
▁correspondence	-13897
zo	-13898
▁€	-13899
eli	-13900
hot	-13901
enas	-13902
rice	-13903
grade	-13904
▁1859	-13905
▁Herm	-13906
▁Twin	-13907
▁Woll	-13908
iliary	-13909
isbury	-13910
▁Emily	-13911
▁Franç	-13912
▁patch	-13913
▁resur	-13914
achelor	-13915
official	-13916
▁centres	-13917
▁teenage	-13918
▁commerce	-13919
▁speeches	-13920
▁algorithm	-13921
▁Providence	-13922
▁Herzegovina	-13923
PD	-13924
dam	-13925
opy	-13926
hand	-13927
ilem	-13928
orus	-13929
ripp	-13930
▁147	-13931
▁Vel	-13932
▁fox	-13933
uates	-13934
▁Hank	-13935
▁Vent	-13936
▁Blake	-13937
▁overd	-13938
▁Sicily	-13939
▁consul	-13940
▁infant	-13941
▁openly	-13942
▁batsmen	-13943
▁conting	-13944
▁resolve	-13945
istically	-13946
▁anywhere	-13947
▁securing	-13948
▁woodland	-13949
▁superhero	-13950
▁Ultimately	-13951
▁definitely	-13952
▁struggling	-13953
▁tournaments	-13954
▁availability	-13955
▁descriptions	-13956
▁photographer	-13957
▁posthumously	-13958
ál	-13959
isle	-13960
lend	-13961
▁Hyd	-13962
▁Ltd	-13963
▁McN	-13964
▁hin	-13965
▁sax	-13966
▁Glou	-13967
▁Yard	-13968
▁ampl	-13969
▁ease	-13970
▁Annie	-13971
▁Ganes	-13972
▁Nobel	-13973
▁Ports	-13974
asterly	-13975
▁Fraser	-13976
▁crowds	-13977
▁namely	-13978
▁Manager	-13979
▁Schools	-13980
▁defeats	-13981
▁nesting	-13982
▁puzzles	-13983
▁isotopes	-13984
▁juvenile	-13985
▁Guatemala	-13986
▁highlights	-13987
▁requirement	-13988
DP	-13989
▁Aw	-13990
ishn	-13991
▁Jen	-13992
ocene	-13993
▁Yang	-13994
▁besie	-13995
▁eject	-13996
▁lobby	-13997
▁Pierce	-13998
▁thrust	-13999
▁Freeway	-14000
▁Hundred	-14001
▁Lebanon	-14002
▁Nothing	-14003
▁convoys	-14004
▁enacted	-14005
▁healthy	-14006
▁painter	-14007
▁remarks	-14008
▁worried	-14009
▁Chambers	-14010
▁Ultimate	-14011
▁colleges	-14012
▁darkness	-14013
▁eleventh	-14014
▁findings	-14015
▁Holocaust	-14016
▁accidents	-14017
▁festivals	-14018
▁placement	-14019
▁thickness	-14020
▁Commercial	-14021
▁controlling	-14022
▁generations	-14023
LA	-14024
▁Mé	-14025
▁Nu	-14026
▁Wa	-14027
▁da	-14028
▁Laf	-14029
▁PHP	-14030
▁Sau	-14031
gence	-14032
iston	-14033
rosse	-14034
▁Bono	-14035
▁Chal	-14036
▁Male	-14037
▁Rush	-14038
▁fluid	-14039
▁gains	-14040
▁Batter	-14041
▁Damasc	-14042
▁amphib	-14043
▁miners	-14044
▁rulers	-14045
ographed	-14046
▁enhance	-14047
▁platoon	-14048
▁referee	-14049
▁stomach	-14050
▁Taxonomy	-14051
▁deceased	-14052
▁seasonal	-14053
▁negotiate	-14054
▁waterline	-14055
▁Paralympic	-14056
▁attributes	-14057
▁instructor	-14058
▁southbound	-14059
▁appreciated	-14060
▁comfortable	-14061
atl	-14062
adic	-14063
dict	-14064
nets	-14065
▁Fab	-14066
▁Pun	-14067
▁Wid	-14068
▁bra	-14069
▁sus	-14070
▁1857	-14071
▁Smart	-14072
▁lease	-14073
▁overh	-14074
▁Lakers	-14075
▁button	-14076
▁thinks	-14077
▁contrary	-14078
▁freshman	-14079
▁pointing	-14080
▁complexity	-14081
▁recreational	-14082
cha	-14083
ocy	-14084
▁CG	-14085
▁iP	-14086
bane	-14087
umni	-14088
yers	-14089
▁Yok	-14090
banks	-14091
irmed	-14092
▁Buch	-14093
▁Hugo	-14094
▁Ster	-14095
▁dors	-14096
▁jail	-14097
▁wors	-14098
agonal	-14099
atters	-14100
penter	-14101
▁Manit	-14102
▁facts	-14103
▁woods	-14104
▁Gerald	-14105
▁Humber	-14106
▁Single	-14107
▁Sounds	-14108
onscious	-14109
▁Carlsen	-14110
▁Twitter	-14111
▁Written	-14112
▁circles	-14113
▁honored	-14114
▁stepped	-14115
▁warrant	-14116
▁resource	-14117
▁tracking	-14118
▁Mountaine	-14119
▁inflicted	-14120
▁prominence	-14121
▁enthusiastic	-14122
▁Distinguished	-14123
eo	-14124
iox	-14125
rez	-14126
quet	-14127
▁CIA	-14128
▁ump	-14129
oints	-14130
▁Rama	-14131
▁Tide	-14132
lessly	-14133
veston	-14134
▁acute	-14135
▁atoms	-14136
▁bonds	-14137
▁chlor	-14138
▁freed	-14139
▁saves	-14140
itating	-14141
▁Arkham	-14142
▁Flames	-14143
▁aliens	-14144
▁fierce	-14145
▁fusion	-14146
▁ranged	-14147
▁thirds	-14148
▁Malcolm	-14149
▁Neptune	-14150
▁customs	-14151
▁Theodore	-14152
▁afterward	-14153
▁aggregate	-14154
▁incorrect	-14155
▁varieties	-14156
▁Georgetown	-14157
▁adventures	-14158
▁assignment	-14159
zep	-14160
quez	-14161
▁Cum	-14162
atomy	-14163
ctica	-14164
inate	-14165
inkel	-14166
▁Wool	-14167
▁bicy	-14168
▁Solid	-14169
▁burst	-14170
▁reads	-14171
▁Franco	-14172
▁guided	-14173
▁Crimson	-14174
▁exagger	-14175
▁visuals	-14176
▁certific	-14177
▁governed	-14178
▁turnpike	-14179
▁Bangladesh	-14180
▁dimensions	-14181
▁millimeter	-14182
▁destination	-14183
▁possessions	-14184
jm	-14185
lay	-14186
▁OC	-14187
edge	-14188
▁Hig	-14189
▁Hod	-14190
▁coc	-14191
byter	-14192
inely	-14193
omous	-14194
opath	-14195
▁1849	-14196
▁1858	-14197
▁Tosh	-14198
▁axis	-14199
▁fare	-14200
▁Spect	-14201
▁flags	-14202
▁Cherry	-14203
▁divide	-14204
▁eagles	-14205
▁locked	-14206
▁submit	-14207
▁doubled	-14208
▁editing	-14209
▁Damascus	-14210
▁Leonardo	-14211
▁accuracy	-14212
▁consumed	-14213
▁enlarged	-14214
▁conquered	-14215
▁screening	-14216
▁homosexual	-14217
▁Broadcasting	-14218
lies	-14219
rance	-14220
▁Made	-14221
▁Make	-14222
▁Pole	-14223
▁Sibu	-14224
▁trem	-14225
▁Orton	-14226
▁Paper	-14227
▁Rugby	-14228
▁chord	-14229
▁fairy	-14230
▁illeg	-14231
▁Hokies	-14232
▁Mobile	-14233
▁Venice	-14234
▁equity	-14235
hetamine	-14236
▁Armenia	-14237
▁Machine	-14238
▁monitor	-14239
▁Russians	-14240
▁mistaken	-14241
▁siblings	-14242
▁amendment	-14243
▁commended	-14244
▁comprises	-14245
▁migration	-14246
▁immigration	-14247
▁modifications	-14248
arte	-14249
bach	-14250
elia	-14251
inus	-14252
▁Doc	-14253
▁IOC	-14254
▁SMS	-14255
▁aux	-14256
sover	-14257
▁irre	-14258
alysis	-14259
▁Linda	-14260
▁annoy	-14261
▁blank	-14262
▁roofs	-14263
▁Beyond	-14264
▁Dayton	-14265
▁Tunnel	-14266
▁define	-14267
▁laying	-14268
▁wanting	-14269
▁thriller	-14270
▁Artillery	-14271
▁Gallagher	-14272
▁Galveston	-14273
▁copyright	-14274
DT	-14275
▁Đ	-14276
nut	-14277
▁Aj	-14278
erns	-14279
▁tob	-14280
antom	-14281
▁Lamb	-14282
▁Shar	-14283
▁Tina	-14284
omorph	-14285
▁Carte	-14286
▁Level	-14287
▁Price	-14288
▁Tiger	-14289
▁cliff	-14290
▁imped	-14291
rically	-14292
▁Scotia	-14293
▁curric	-14294
▁kicked	-14295
▁Doggett	-14296
▁Popular	-14297
▁Streets	-14298
▁coloured	-14299
▁costumes	-14300
▁divorced	-14301
▁inferior	-14302
▁merchand	-14303
▁relevant	-14304
▁satisfied	-14305
▁antagonist	-14306
▁reflecting	-14307
▁countryside	-14308
▁IU	-14309
▁WS	-14310
anga	-14311
ding	-14312
iban	-14313
otto	-14314
soon	-14315
▁Bax	-14316
▁ber	-14317
▁née	-14318
▁tong	-14319
▁wool	-14320
▁Chuck	-14321
▁Cuban	-14322
▁Roads	-14323
▁demon	-14324
▁intim	-14325
▁naked	-14326
▁nurse	-14327
▁scope	-14328
changes	-14329
▁Global	-14330
▁Trevor	-14331
▁chains	-14332
▁Working	-14333
▁outdoor	-14334
▁upgrade	-14335
▁Arkansas	-14336
▁interface	-14337
▁meanwhile	-14338
▁responses	-14339
▁concluding	-14340
▁missionaries	-14341
▁investigations	-14342
RT	-14343
oop	-14344
roid	-14345
▁Fan	-14346
aford	-14347
elles	-14348
irate	-14349
▁Sche	-14350
▁Tank	-14351
▁Holst	-14352
▁Sugar	-14353
▁cryst	-14354
▁Conrad	-14355
▁Dunham	-14356
▁Milton	-14357
▁Tallon	-14358
▁regret	-14359
▁Rowland	-14360
▁plastic	-14361
▁precurs	-14362
▁borrowed	-14363
▁clearing	-14364
▁kilogram	-14365
▁ordering	-14366
▁quantity	-14367
▁reliable	-14368
▁shelters	-14369
▁skyscrap	-14370
▁Engineers	-14371
▁legitimate	-14372
dan	-14373
▁OS	-14374
rawl	-14375
zens	-14376
▁139	-14377
▁fib	-14378
▁nas	-14379
ilian	-14380
▁Kann	-14381
▁Winc	-14382
▁disk	-14383
raltar	-14384
urated	-14385
▁Alpha	-14386
▁Plaza	-14387
▁Sansk	-14388
▁marsh	-14389
▁Bulgar	-14390
▁Hammer	-14391
▁Planet	-14392
▁leaked	-14393
▁orient	-14394
▁wouldn	-14395
▁Chetnik	-14396
▁Everton	-14397
▁Economic	-14398
▁favoured	-14399
▁maritime	-14400
▁monarchy	-14401
▁peripher	-14402
▁unemploy	-14403
▁Gibraltar	-14404
▁carefully	-14405
▁persisted	-14406
▁synthesis	-14407
▁prohibited	-14408
▁regulation	-14409
▁rectangular	-14410
▁predecessors	-14411
▁accommodation	-14412
▁determination	-14413
MC	-14414
aho	-14415
alan	-14416
uana	-14417
▁Spy	-14418
izoph	-14419
sburg	-14420
▁1820	-14421
▁Brew	-14422
▁Béla	-14423
▁Slav	-14424
▁duck	-14425
asants	-14426
graded	-14427
▁Belle	-14428
▁Right	-14429
▁Vocal	-14430
▁ambig	-14431
▁fails	-14432
▁Screen	-14433
▁renown	-14434
▁repeat	-14435
izophren	-14436
▁Journey	-14437
▁Pearson	-14438
▁custody	-14439
▁Thriller	-14440
▁farmland	-14441
▁automatic	-14442
▁operators	-14443
▁attachment	-14444
▁introduces	-14445
▁adaptations	-14446
▁capabilities	-14447
▁superstructure	-14448
ivo	-14449
▁es	-14450
amus	-14451
isch	-14452
▁Bot	-14453
▁Cay	-14454
▁Euc	-14455
▁Gaz	-14456
▁1856	-14457
▁Exam	-14458
▁Gael	-14459
▁Mile	-14460
▁Site	-14461
▁Edgar	-14462
▁posed	-14463
▁Illust	-14464
▁Monday	-14465
▁parade	-14466
▁Capitol	-14467
▁Victory	-14468
▁Voyager	-14469
▁amazing	-14470
▁chances	-14471
▁fitting	-14472
▁freight	-14473
▁realism	-14474
▁exceeded	-14475
▁judgment	-14476
▁manifest	-14477
▁pipeline	-14478
▁hospitals	-14479
▁manuscripts	-14480
▁deteriorated	-14481
Sh	-14482
atsu	-14483
▁Dry	-14484
▁Eye	-14485
▁Hil	-14486
▁dug	-14487
eward	-14488
outed	-14489
▁Elli	-14490
▁Fear	-14491
▁mere	-14492
▁Joker	-14493
▁Tiber	-14494
▁slide	-14495
▁spont	-14496
amation	-14497
itative	-14498
▁Curtis	-14499
▁prints	-14500
▁rookie	-14501
▁Salisbury	-14502
▁Hutchinson	-14503
▁Soundtrack	-14504
▁altogether	-14505
▁144	-14506
▁Shu	-14507
▁fut	-14508
lance	-14509
olesc	-14510
▁Bulg	-14511
▁Gore	-14512
▁Have	-14513
▁Pasc	-14514
▁Raid	-14515
▁gran	-14516
alogue	-14517
arther	-14518
▁Bloom	-14519
▁Dover	-14520
▁Kenya	-14521
▁Milan	-14522
▁Wrest	-14523
▁arbit	-14524
▁lions	-14525
▁surve	-14526
agnetic	-14527
▁abrupt	-14528
▁Concert	-14529
▁Municip	-14530
▁creates	-14531
▁oversaw	-14532
▁suspect	-14533
▁Medicine	-14534
▁Orthodox	-14535
▁adoption	-14536
▁physician	-14537
▁shortened	-14538
▁starboard	-14539
▁agreements	-14540
▁innovative	-14541
amy	-14542
rae	-14543
▁Eb	-14544
phal	-14545
▁320	-14546
▁Neg	-14547
▁pla	-14548
adequ	-14549
onged	-14550
▁Cert	-14551
ayette	-14552
writer	-14553
▁Eaton	-14554
▁Helms	-14555
▁Julie	-14556
▁Marion	-14557
▁Myster	-14558
▁Racing	-14559
▁judged	-14560
▁sketch	-14561
▁courage	-14562
▁deities	-14563
▁Aircraft	-14564
▁Buddhist	-14565
▁currency	-14566
▁motorway	-14567
▁diagnosis	-14568
▁specified	-14569
▁unwilling	-14570
▁Antarctica	-14571
▁inscription	-14572
▁celebrations	-14573
▁FM	-14574
iasm	-14575
onge	-14576
▁LeM	-14577
▁hes	-14578
▁jam	-14579
▁vit	-14580
assic	-14581
osely	-14582
▁Brah	-14583
▁Mine	-14584
entric	-14585
houses	-14586
▁Maced	-14587
▁Pitch	-14588
▁Poole	-14589
▁Quinn	-14590
▁alert	-14591
▁immun	-14592
▁parad	-14593
▁beings	-14594
▁betray	-14595
▁occupy	-14596
▁united	-14597
▁volunt	-14598
▁anthrop	-14599
▁cooking	-14600
▁coupled	-14601
▁Brisbane	-14602
▁detached	-14603
▁kingdoms	-14604
▁tendency	-14605
▁pollution	-14606
▁primitive	-14607
▁explicitly	-14608
▁Distribution	-14609
py	-14610
▁Ib	-14611
▁Chi	-14612
▁Lob	-14613
▁Wic	-14614
▁rod	-14615
atoes	-14616
▁Rocky	-14617
▁Train	-14618
▁knock	-14619
▁spare	-14620
▁Individ	-14621
▁Miranda	-14622
▁inadequ	-14623
▁landown	-14624
▁summary	-14625
▁Cromwell	-14626
▁Italians	-14627
▁clinical	-14628
▁endorsed	-14629
▁Beautiful	-14630
▁dominance	-14631
▁keyboards	-14632
▁societies	-14633
▁Louisville	-14634
▁decoration	-14635
▁Observatory	-14636
▁enforcement	-14637
▁expeditions	-14638
IC	-14639
apa	-14640
▁UP	-14641
eker	-14642
icia	-14643
rite	-14644
▁149	-14645
▁Cyp	-14646
▁Lis	-14647
▁ram	-14648
▁unt	-14649
ilogy	-14650
▁1846	-14651
▁Dana	-14652
▁Name	-14653
▁rabb	-14654
▁seam	-14655
idance	-14656
▁Remix	-14657
▁Angela	-14658
▁Dudley	-14659
▁Louise	-14660
▁talked	-14661
▁Mounted	-14662
▁catalog	-14663
foundland	-14664
▁Crawford	-14665
▁brigades	-14666
▁servants	-14667
▁stopping	-14668
▁pregnancy	-14669
▁seventeen	-14670
▁Chancellor	-14671
▁architects	-14672
▁collective	-14673
▁graduation	-14674
▁specialist	-14675
▁Newfoundland	-14676
▁technologies	-14677
▁disappointment	-14678
RC	-14679
pat	-14680
▁Eg	-14681
comb	-14682
empl	-14683
lynn	-14684
▁Cao	-14685
▁Jol	-14686
ibald	-14687
▁Crew	-14688
▁musc	-14689
▁Langu	-14690
▁humid	-14691
▁imper	-14692
▁reiss	-14693
▁Kessel	-14694
▁counts	-14695
▁Collect	-14696
▁climbed	-14697
▁drowned	-14698
▁legally	-14699
unciation	-14700
▁delegation	-14701
▁contemporaries	-14702
cip	-14703
abad	-14704
agin	-14705
ipel	-14706
▁NME	-14707
▁Guam	-14708
▁carn	-14709
omfort	-14710
▁Diane	-14711
▁Lions	-14712
▁altar	-14713
▁firms	-14714
▁lingu	-14715
chester	-14716
ictions	-14717
▁Newman	-14718
▁dorsal	-14719
▁galaxy	-14720
▁transp	-14721
▁troubl	-14722
▁electro	-14723
unningham	-14724
▁innocent	-14725
▁overtime	-14726
▁spectrum	-14727
▁strictly	-14728
▁Discovery	-14729
▁struggles	-14730
▁Associated	-14731
▁dramatically	-14732
ET	-14733
tt	-14734
ked	-14735
achy	-14736
blem	-14737
▁Bog	-14738
▁Lay	-14739
amped	-14740
itian	-14741
pherd	-14742
▁Balk	-14743
▁XIII	-14744
intend	-14745
lining	-14746
▁Haven	-14747
▁Mater	-14748
▁Turks	-14749
isphere	-14750
▁Annual	-14751
▁Burges	-14752
▁Patton	-14753
▁Places	-14754
▁Bedford	-14755
▁Neither	-14756
▁careers	-14757
▁package	-14758
▁trigger	-14759
▁twelfth	-14760
▁defenses	-14761
▁limestone	-14762
▁performer	-14763
▁testimony	-14764
avan	-14765
elin	-14766
ente	-14767
qual	-14768
sten	-14769
▁Rox	-14770
atops	-14771
lides	-14772
▁Berg	-14773
▁Dunn	-14774
▁Gret	-14775
▁Pand	-14776
▁Armed	-14777
▁Curie	-14778
▁abbey	-14779
▁escal	-14780
▁gorge	-14781
▁monks	-14782
▁Eagles	-14783
▁accent	-14784
▁hiatus	-14785
▁slowed	-14786
▁Variety	-14787
▁exhaust	-14788
▁Ferguson	-14789
▁drawings	-14790
▁ensemble	-14791
▁reconcil	-14792
▁retiring	-14793
▁frustrated	-14794
▁Underground	-14795
▁confrontation	-14796
▁effectiveness	-14797
ci	-14798
ggy	-14799
▁MC	-14800
▁SH	-14801
issa	-14802
oeuv	-14803
▁Cox	-14804
▁Dri	-14805
▁Rab	-14806
armed	-14807
▁Bast	-14808
▁Flag	-14809
▁Lois	-14810
▁toss	-14811
▁rises	-14812
▁dreams	-14813
▁lauded	-14814
▁permit	-14815
▁pigeon	-14816
▁Clement	-14817
▁plumage	-14818
▁Sanskrit	-14819
▁defining	-14820
▁factions	-14821
▁monsters	-14822
▁nobility	-14823
▁peaceful	-14824
▁skeleton	-14825
▁Methodist	-14826
▁inability	-14827
▁triggered	-14828
▁Recreation	-14829
▁confronted	-14830
▁foundations	-14831
bel	-14832
▁CF	-14833
pets	-14834
riet	-14835
▁Kin	-14836
▁Mao	-14837
▁sid	-14838
swick	-14839
▁MacL	-14840
▁Nass	-14841
▁Wake	-14842
▁beta	-14843
▁cuis	-14844
▁dish	-14845
▁rode	-14846
▁vacc	-14847
▁Glass	-14848
▁Janet	-14849
▁Shore	-14850
▁pride	-14851
▁smart	-14852
▁solve	-14853
▁synth	-14854
redited	-14855
▁Astron	-14856
▁Indeed	-14857
▁Rather	-14858
▁Rodrig	-14859
▁mirror	-14860
▁rumors	-14861
▁fortune	-14862
▁matched	-14863
▁Hastings	-14864
▁realizes	-14865
▁Paramount	-14866
▁observers	-14867
▁Environmental	-14868
▁je	-14869
roft	-14870
vana	-14871
▁330	-14872
▁Kum	-14873
[...]
